{
  "version": "1.0",
  "truncation": null,
  "padding": null,
  "added_tokens": [
    {
      "id": 0,
      "content": "<|endoftext|>",
      "single_word": false,
      "lstrip": false,
      "rstrip": false,
      "normalized": false,
      "special": true
    },
    {
      "id": 1,
      "content": "<|im_start|>",
      "single_word": false,
      "lstrip": false,
      "rstrip": false,
      "normalized": false,
      "special": true
    },
    {
      "id": 2,
      "content": "<|im_end|>",
      "single_word": false,
      "lstrip": false,
      "rstrip": false,
      "normalized": false,
      "special": true
    }
  ],
  "normalizer": null,
  "pre_tokenizer": {
    "type": "ByteLevel",
    "add_prefix_space": false,
    "trim_offsets": true,
    "use_regex": true
  },
  "post_processor": {
    "type": "TemplateProcessing",
    "single": [
      {
        "Sequence": {
          "id": "A",
          "type_id": 0
        }
      }
    ],
    "pair": [
      {
        "Sequence": {
          "id": "A",
          "type_id": 0
        }
      },
      {
        "Sequence": {
          "id": "B",
          "type_id": 1
        }
      }
    ],
    "special_tokens": {}
  },
  "decoder": {
    "type": "ByteLevel",
    "add_prefix_space": true,
    "trim_offsets": true,
    "use_regex": true
  },
  "model": {
    "type": "BPE",
    "dropout": null,
    "unk_token": null,
    "continuing_subword_prefix": null,
    "end_of_word_suffix": null,
    "fuse_unk": false,
    "byte_fallback": false,
    "ignore_merges": false,
    "vocab": {
      "<|endoftext|>": 0,
      "<|im_start|>": 1,
      "<|im_end|>": 2,
      "!": 3,
      "\"": 4,
      "#": 5,
      "$": 6,
      "%": 7,
      "&": 8,
      "'": 9,
      "(": 10,
      ")": 11,
      "*": 12,
      "+": 13,
      ",": 14,
      "-": 15,
      ".": 16,
      "/": 17,
      "0": 18,
      "1": 19,
      "2": 20,
      "3": 21,
      "4": 22,
      "5": 23,
      "6": 24,
      "7": 25,
      "8": 26,
      "9": 27,
      ":": 28,
      ";": 29,
      "<": 30,
      "=": 31,
      ">": 32,
      "?": 33,
      "@": 34,
      "A": 35,
      "B": 36,
      "C": 37,
      "D": 38,
      "E": 39,
      "F": 40,
      "G": 41,
      "H": 42,
      "I": 43,
      "J": 44,
      "K": 45,
      "L": 46,
      "M": 47,
      "N": 48,
      "O": 49,
      "P": 50,
      "Q": 51,
      "R": 52,
      "S": 53,
      "T": 54,
      "U": 55,
      "V": 56,
      "W": 57,
      "X": 58,
      "Y": 59,
      "Z": 60,
      "[": 61,
      "\\": 62,
      "]": 63,
      "^": 64,
      "_": 65,
      "`": 66,
      "a": 67,
      "b": 68,
      "c": 69,
      "d": 70,
      "e": 71,
      "f": 72,
      "g": 73,
      "h": 74,
      "i": 75,
      "j": 76,
      "k": 77,
      "l": 78,
      "m": 79,
      "n": 80,
      "o": 81,
      "p": 82,
      "q": 83,
      "r": 84,
      "s": 85,
      "t": 86,
      "u": 87,
      "v": 88,
      "w": 89,
      "x": 90,
      "y": 91,
      "z": 92,
      "{": 93,
      "|": 94,
      "}": 95,
      "~": 96,
      "¡": 97,
      "¢": 98,
      "£": 99,
      "¤": 100,
      "¥": 101,
      "¦": 102,
      "§": 103,
      "¨": 104,
      "©": 105,
      "ª": 106,
      "«": 107,
      "¬": 108,
      "®": 109,
      "¯": 110,
      "°": 111,
      "±": 112,
      "²": 113,
      "³": 114,
      "´": 115,
      "µ": 116,
      "¶": 117,
      "·": 118,
      "¸": 119,
      "¹": 120,
      "º": 121,
      "»": 122,
      "¼": 123,
      "½": 124,
      "¾": 125,
      "¿": 126,
      "À": 127,
      "Á": 128,
      "Â": 129,
      "Ã": 130,
      "Ä": 131,
      "Å": 132,
      "Æ": 133,
      "Ç": 134,
      "È": 135,
      "É": 136,
      "Ê": 137,
      "Ë": 138,
      "Ì": 139,
      "Í": 140,
      "Î": 141,
      "Ï": 142,
      "Ð": 143,
      "Ñ": 144,
      "Ò": 145,
      "Ó": 146,
      "Ô": 147,
      "Õ": 148,
      "Ö": 149,
      "×": 150,
      "Ø": 151,
      "Ù": 152,
      "Ú": 153,
      "Û": 154,
      "Ü": 155,
      "Ý": 156,
      "Þ": 157,
      "ß": 158,
      "à": 159,
      "á": 160,
      "â": 161,
      "ã": 162,
      "ä": 163,
      "å": 164,
      "æ": 165,
      "ç": 166,
      "è": 167,
      "é": 168,
      "ê": 169,
      "ë": 170,
      "ì": 171,
      "í": 172,
      "î": 173,
      "ï": 174,
      "ð": 175,
      "ñ": 176,
      "ò": 177,
      "ó": 178,
      "ô": 179,
      "õ": 180,
      "ö": 181,
      "÷": 182,
      "ø": 183,
      "ù": 184,
      "ú": 185,
      "û": 186,
      "ü": 187,
      "ý": 188,
      "þ": 189,
      "ÿ": 190,
      "Ā": 191,
      "ā": 192,
      "Ă": 193,
      "ă": 194,
      "Ą": 195,
      "ą": 196,
      "Ć": 197,
      "ć": 198,
      "Ĉ": 199,
      "ĉ": 200,
      "Ċ": 201,
      "ċ": 202,
      "Č": 203,
      "č": 204,
      "Ď": 205,
      "ď": 206,
      "Đ": 207,
      "đ": 208,
      "Ē": 209,
      "ē": 210,
      "Ĕ": 211,
      "ĕ": 212,
      "Ė": 213,
      "ė": 214,
      "Ę": 215,
      "ę": 216,
      "Ě": 217,
      "ě": 218,
      "Ĝ": 219,
      "ĝ": 220,
      "Ğ": 221,
      "ğ": 222,
      "Ġ": 223,
      "ġ": 224,
      "Ģ": 225,
      "ģ": 226,
      "Ĥ": 227,
      "ĥ": 228,
      "Ħ": 229,
      "ħ": 230,
      "Ĩ": 231,
      "ĩ": 232,
      "Ī": 233,
      "ī": 234,
      "Ĭ": 235,
      "ĭ": 236,
      "Į": 237,
      "į": 238,
      "İ": 239,
      "ı": 240,
      "Ĳ": 241,
      "ĳ": 242,
      "Ĵ": 243,
      "ĵ": 244,
      "Ķ": 245,
      "ķ": 246,
      "ĸ": 247,
      "Ĺ": 248,
      "ĺ": 249,
      "Ļ": 250,
      "ļ": 251,
      "Ľ": 252,
      "ľ": 253,
      "Ŀ": 254,
      "ŀ": 255,
      "Ł": 256,
      "ł": 257,
      "Ń": 258,
      "Ġt": 259,
      "Ġa": 260,
      "in": 261,
      "he": 262,
      "re": 263,
      "ï¼": 264,
      "ä¸": 265,
      "on": 266,
      "at": 267,
      "çļ": 268,
      "çļĦ": 269,
      "ï¼Į": 270,
      "Ġs": 271,
      "Ġc": 272,
      "nd": 273,
      "ãĢ": 274,
      "er": 275,
      "Ġthe": 276,
      "es": 277,
      "en": 278,
      "or": 279,
      "an": 280,
      "Ġand": 281,
      "ing": 282,
      "Ġp": 283,
      "it": 284,
      "al": 285,
      "ãĢĤ": 286,
      "Ġo": 287,
      "Ġw": 288,
      "ä»": 289,
      "Ġto": 290,
      "is": 291,
      "ou": 292,
      "Ġm": 293,
      "äº": 294,
      "Ġin": 295,
      "Ġf": 296,
      "Ġb": 297,
      "ed": 298,
      "ion": 299,
      "åı": 300,
      "ic": 301,
      "Ġd": 302,
      "Ġof": 303,
      "le": 304,
      "ar": 305,
      "ro": 306,
      "ĠĠ": 307,
      "åħ": 308,
      "ent": 309,
      "æľ": 310,
      "Ġe": 311,
      "åĴ": 312,
      "è¿": 313,
      "ä½": 314,
      "åĴĮ": 315,
      "æĪ": 316,
      "å®": 317,
      "åĪ": 318,
      "ve": 319,
      "us": 320,
      "Ġre": 321,
      "Ġh": 322,
      "Ġth": 323,
      "as": 324,
      "ct": 325,
      "çĶ": 326,
      "om": 327,
      "åľ": 328,
      "å¤": 329,
      "æĺ": 330,
      "åĬ": 331,
      "åĲ": 332,
      "ä¸Ģ": 333,
      "im": 334,
      "è¯": 335,
      "æĸ": 336,
      "ation": 337,
      "lo": 338,
      "ç»": 339,
      "Ġbe": 340,
      "ãĢģ": 341,
      "id": 342,
      "Ġcan": 343,
      "il": 344,
      "æĺ¯": 345,
      "ä¹": 346,
      "è®": 347,
      "ĠA": 348,
      "Ġthat": 349,
      "ĠT": 350,
      "ä»¥": 351,
      "ch": 352,
      "Ġy": 353,
      "ce": 354,
      "ï¼ļ": 355,
      "ot": 356,
      "ers": 357,
      "Ġn": 358,
      "éĢ": 359,
      "ra": 360,
      "å°": 361,
      "Ġg": 362,
      "Ġyou": 363,
      "åŃ": 364,
      "Ġpro": 365,
      "et": 366,
      "åº": 367,
      "åľ¨": 368,
      "ly": 369,
      "Ġis": 370,
      "ä¸ª": 371,
      "Ġl": 372,
      "ur": 373,
      "Ġfor": 374,
      "åı¯": 375,
      "éĩ": 376,
      "st": 377,
      "çļĦæ": 378,
      "ut": 379,
      "Ġhe": 380,
      "if": 381,
      "ĥ½": 382,
      "ä¼": 383,
      "ĠI": 384,
      "è¡": 385,
      "ir": 386,
      "ith": 387,
      "å¹": 388,
      "Ġare": 389,
      "ig": 390,
      "Ġst": 391,
      "el": 392,
      "ol": 393,
      "å¸": 394,
      "ul": 395,
      "æĿ": 396,
      "æĪĳ": 397,
      "Ġon": 398,
      "è¦": 399,
      "æľī": 400,
      "æĹ": 401,
      "å¯": 402,
      "è§": 403,
      "è¦ģ": 404,
      "Ġus": 405,
      "ay": 406,
      "æķ": 407,
      "çī": 408,
      "ow": 409,
      "ment": 410,
      "çĶ¨": 411,
      "ess": 412,
      "ä¸Ń": 413,
      "ä»¬": 414,
      "äºº": 415,
      "åĩ": 416,
      "Ġex": 417,
      "ĠĠĠĠ": 418,
      "åĽ": 419,
      "åĮ": 420,
      "å¼": 421,
      "Ġcon": 422,
      "se": 423,
      "èĥ½": 424,
      "çİ": 425,
      "Ġan": 426,
      "Ġwith": 427,
      "ä¸º": 428,
      "ate": 429,
      "iv": 430,
      "am": 431,
      "Ġas": 432,
      "ure": 433,
      "è¿Ļ": 434,
      "åĨ": 435,
      "çŃ": 436,
      "Ġor": 437,
      "å·": 438,
      "Ġal": 439,
      "ies": 440,
      "ç§": 441,
      "Ġim": 442,
      "æĢ": 443,
      "ver": 444,
      "ab": 445,
      "äºĨ": 446,
      "Ġsu": 447,
      "Ġde": 448,
      "ge": 449,
      "th": 450,
      "åı¯ä»¥": 451,
      "èĢ": 452,
      "ä¸į": 453,
      "å¾": 454,
      "ĠAI": 455,
      "Ġen": 456,
      "éĹ": 457,
      "æī": 458,
      "ak": 459,
      "ive": 460,
      "Ġmo": 461,
      "å¥": 462,
      "éĿ": 463,
      "çĽ": 464,
      "ity": 465,
      "ä¿": 466,
      "un": 467,
      "è´": 468,
      "åį": 469,
      "Ġit": 470,
      "Ġimp": 471,
      "ect": 472,
      "æł": 473,
      "å½": 474,
      "èĩ": 475,
      "é¢": 476,
      "åĵ": 477,
      "æ³": 478,
      "ort": 479,
      "ad": 480,
      "æŀ": 481,
      "em": 482,
      "Ġcom": 483,
      "å¦": 484,
      "her": 485,
      "ere": 486,
      "ĠS": 487,
      "ial": 488,
      "ĠC": 489,
      "ĠThe": 490,
      "çĲ": 491,
      "çĶŁ": 492,
      "æĦ": 493,
      "pp": 494,
      "æŃ": 495,
      "æĸ¹": 496,
      "qu": 497,
      "Ġwh": 498,
      "å¦Ĥ": 499,
      "éľ": 500,
      "ant": 501,
      "Ġle": 502,
      "Ġv": 503,
      "æĭ": 504,
      "æĬ": 505,
      "ust": 506,
      "æĹ¶": 507,
      "çŃī": 508,
      "åĳ": 509,
      "å¯¹": 510,
      "ter": 511,
      "ld": 512,
      "è¡Į": 513,
      "Ġch": 514,
      "ud": 515,
      "éľĢ": 516,
      "æ°": 517,
      "æĪĲ": 518,
      "Ġ|": 519,
      "ac": 520,
      "ain": 521,
      "iz": 522,
      "æı": 523,
      "ions": 524,
      "Ġha": 525,
      "æĽ": 526,
      "--": 527,
      "æĿ¥": 528,
      "ome": 529,
      "å¿": 530,
      "'s": 531,
      "Ġne": 532,
      "est": 533,
      "ä¾": 534,
      "um": 535,
      "åĪ°": 536,
      "åľ°": 537,
      "ist": 538,
      "âĢ": 539,
      "çī©": 540,
      "ä¸Ģä¸ª": 541,
      "lp": 542,
      "æİ": 543,
      "èĩª": 544,
      "Ġhelp": 545,
      "Ġtheir": 546,
      "æĶ": 547,
      "ä½ľ": 548,
      "ä¼ļ": 549,
      "æĮ": 550,
      "æĪĳä»¬": 551,
      "nt": 552,
      "äºİ": 553,
      "åĪĨ": 554,
      "res": 555,
      "pe": 556,
      "åĩº": 557,
      "ide": 558,
      "æĥ": 559,
      "ĠH": 560,
      "è¾": 561,
      "ĠM": 562,
      "ff": 563,
      "æ¯": 564,
      "od": 565,
      "ical": 566,
      "Ġwor": 567,
      "ä¸Ĭ": 568,
      "are": 569,
      "æĽ´": 570,
      "Ġyour": 571,
      "ä¸ĭ": 572,
      "èµ": 573,
      "ations": 574,
      "æķ°": 575,
      "Ġte": 576,
      "åİ": 577,
      "çĲĨ": 578,
      "ĠTh": 579,
      "è¿ĩ": 580,
      "å¹¶": 581,
      "du": 582,
      "éĿ¢": 583,
      "Ġad": 584,
      "ill": 585,
      "æµ": 586,
      "å¥½": 587,
      "oc": 588,
      "act": 589,
      "éľĢè¦ģ": 590,
      "ä»ĸ": 591,
      "å±": 592,
      "Ġr": 593,
      "Ġmore": 594,
      "åŃ¦": 595,
      "ç®": 596,
      "igh": 597,
      "äºĽ": 598,
      "ĠB": 599,
      "åĬ¨": 600,
      "åĵģ": 601,
      "èī": 602,
      "ple": 603,
      "Ġinc": 604,
      "åĲĮ": 605,
      "Ġexp": 606,
      "ould": 607,
      "ä½ł": 608,
      "æį": 609,
      "æıĲ": 610,
      "å¤§": 611,
      "çİ°": 612,
      "pt": 613,
      "ĠP": 614,
      "all": 615,
      "åĬł": 616,
      "ç§į": 617,
      "Ġse": 618,
      "åĬĽ": 619,
      "out": 620,
      "Ġhave": 621,
      "çº": 622,
      "ä½ĵ": 623,
      "Ġprov": 624,
      "åĮĸ": 625,
      "å¤ļ": 626,
      "å®ļ": 627,
      "Ġused": 628,
      "éĢļ": 629,
      "cc": 630,
      "è¿Ľ": 631,
      "æ´": 632,
      "Ġsh": 633,
      "Ġab": 634,
      "os": 635,
      "Ġres": 636,
      "ĠThis": 637,
      "ç¨": 638,
      "æĢ§": 639,
      "age": 640,
      "ri": 641,
      "æ¸": 642,
      "able": 643,
      "åŃĲ": 644,
      "Ġby": 645,
      "åıĳ": 646,
      "éĩı": 647,
      "åºĶ": 648,
      "Ġlo": 649,
      "ä½¿": 650,
      "åħ¶": 651,
      "é«": 652,
      "éĻ": 653,
      "é«ĺ": 654,
      "åº¦": 655,
      "è§£": 656,
      "é£": 657,
      "å°Ĩ": 658,
      "æ³ķ": 659,
      "and": 660,
      "ä¿Ŀ": 661,
      "ans": 662,
      "for": 663,
      "rom": 664,
      "reat": 665,
      "Ġpl": 666,
      "çļĦç": 667,
      "å¸¸": 668,
      "è½": 669,
      "Ġwe": 670,
      "è¡¨": 671,
      "ake": 672,
      "æĪĸ": 673,
      "é¢ĺ": 674,
      "åŁ": 675,
      "Ġme": 676,
      "æĸĩ": 677,
      "ther": 678,
      "ke": 679,
      "å®¶": 680,
      "åĲĪ": 681,
      "æľĢ": 682,
      "ine": 683,
      "Ġsome": 684,
      "ç±": 685,
      "éĩį": 686,
      "æŀľ": 687,
      "ĠW": 688,
      "ĠE": 689,
      "éĺ": 690,
      "our": 691,
      "rou": 692,
      "çĤ": 693,
      "æ±": 694,
      "åħ³": 695,
      "Ġint": 696,
      "ance": 697,
      "ä¹Ł": 698,
      "éģ": 699,
      "ĠĠĠ": 700,
      "å®ĥ": 701,
      "ag": 702,
      "æ¬": 703,
      "00": 704,
      "è°": 705,
      "ult": 706,
      "yst": 707,
      "éĹ´": 708,
      "ç³": 709,
      "Ġtr": 710,
      "pl": 711,
      "art": 712,
      "æĦŁ": 713,
      "æĤ": 714,
      "ata": 715,
      "ĠF": 716,
      "form": 717,
      "è®¡": 718,
      "Ġfrom": 719,
      "ĠD": 720,
      "éĹ®": 721,
      "ight": 722,
      "ces": 723,
      "æį®": 724,
      "lop": 725,
      "ä¹ĭ": 726,
      "Ġfe": 727,
      "åģ": 728,
      "velop": 729,
      "Ġ1": 730,
      "åĽł": 731,
      "ks": 732,
      "æ²": 733,
      "Ġu": 734,
      "å°ı": 735,
      "ystem": 736,
      "Ġdis": 737,
      "ĠR": 738,
      "gy": 739,
      "å·¥": 740,
      "ç¨ĭ": 741,
      "å¢": 742,
      "ence": 743,
      "èĤ": 744,
      "ç¡": 745,
      "Ġtra": 746,
      "å»": 747,
      "åħ¥": 748,
      "ign": 749,
      "alth": 750,
      "Ġsuch": 751,
      "ach": 752,
      "æĻ": 753,
      "arn": 754,
      "Ġdata": 755,
      "è¶": 756,
      "å®ŀ": 757,
      "so": 758,
      "Ġdevelop": 759,
      "ç¤": 760,
      "Ġacc": 761,
      "ast": 762,
      "èĢĮ": 763,
      "Ġ\"": 764,
      "Ġother": 765,
      "å»º": 766,
      "Ġeff": 767,
      "ç«": 768,
      "Ġman": 769,
      "åħ¬": 770,
      "åĢ": 771,
      "çĦ": 772,
      "ms": 773,
      "å¼ı": 774,
      "èī²": 775,
      "å¾Ĺ": 776,
      "ific": 777,
      "Ġj": 778,
      "Ġro": 779,
      "Ġhas": 780,
      "chn": 781,
      "olo": 782,
      "åĪ¶": 783,
      "èĬ": 784,
      "ä½¿çĶ¨": 785,
      "ous": 786,
      "ual": 787,
      "Ġat": 788,
      "Ġem": 789,
      "ell": 790,
      "Ġsystem": 791,
      "Ġhealth": 792,
      "ities": 793,
      "Ġexam": 794,
      "ib": 795,
      "éĶ": 796,
      "Ġabout": 797,
      "äº§": 798,
      "åĲİ": 799,
      "æĦı": 800,
      "ç±»": 801,
      "Ġpre": 802,
      "æĤ¨": 803,
      "Ġalso": 804,
      "ents": 805,
      "Ġind": 806,
      "ind": 807,
      "éĢĤ": 808,
      "Ġtechn": 809,
      "ress": 810,
      "æĥħ": 811,
      "éĹ®é¢ĺ": 812,
      "Ġuse": 813,
      "ï¼Ł": 814,
      "Ġincl": 815,
      "Ġspe": 816,
      "ich": 817,
      "ps": 818,
      "æľº": 819,
      "Ġthey": 820,
      "ie": 821,
      "Ġhow": 822,
      "Ġwork": 823,
      "ä¸ļ": 824,
      "ç´": 825,
      "Ġimpro": 826,
      "Ġlearn": 827,
      "æĸ°": 828,
      "çĤ¹": 829,
      "Ġcont": 830,
      "ard": 831,
      "çĦ¶": 832,
      "æľ¬": 833,
      "ç³»": 834,
      "ç¡®": 835,
      "è®¾": 836,
      "åħ·": 837,
      "éĢī": 838,
      "èĢħ": 839,
      "éħ": 840,
      "gh": 841,
      "__": 842,
      "Ġnot": 843,
      "çľ": 844,
      "çĽ¸": 845,
      "Ġprovide": 846,
      "åī": 847,
      "ional": 848,
      "Ġens": 849,
      "ä¸İ": 850,
      "è´¨": 851,
      "ential": 852,
      "ç»ı": 853,
      "å¿ĥ": 854,
      "ang": 855,
      "æŃ¤": 856,
      "end": 857,
      "Ġpo": 858,
      "è¿Ľè¡Į": 859,
      "ice": 860,
      "Ġ-": 861,
      "Ġway": 862,
      "å·±": 863,
      "Ġ2": 864,
      "ime": 865,
      "ç½": 866,
      "èĩªå·±": 867,
      "Ġun": 868,
      "bot": 869,
      "Ġinclud": 870,
      "ated": 871,
      "æ°´": 872,
      "éķ": 873,
      "æĮģ": 874,
      "ä»£": 875,
      "é¡": 876,
      "æīĢ": 877,
      "çĿ": 878,
      "pport": 879,
      "ood": 880,
      "ike": 881,
      "ru": 882,
      "Ġcomm": 883,
      "ĠL": 884,
      "ä¿¡": 885,
      "ĠG": 886,
      "çŁ": 887,
      "çĶµ": 888,
      "Ġwas": 889,
      "low": 890,
      "erv": 891,
      "åĮħ": 892,
      "ĠĠĠĠĠĠĠĠ": 893,
      "Ġwhe": 894,
      "dit": 895,
      "Ġwhich": 896,
      "Ġcomp": 897,
      "éª": 898,
      "ore": 899,
      "ç¾": 900,
      "Ġ=": 901,
      "çī¹": 902,
      "iff": 903,
      "ert": 904,
      "æģ": 905,
      "rit": 906,
      "Ġrec": 907,
      "åĨħ": 908,
      "æĺİ": 909,
      "ors": 910,
      "Ġpat": 911,
      "----": 912,
      "æŁ": 913,
      "Ġapp": 914,
      "ns": 915,
      "åĬ¡": 916,
      "aly": 917,
      "ace": 918,
      "æ´»": 919,
      "ä¾Ľ": 920,
      "av": 921,
      "ä¸»": 922,
      "Ġpers": 923,
      "çĥ": 924,
      "è¯¥": 925,
      "Ġmy": 926,
      "ç©": 927,
      "eri": 928,
      "è®©": 929,
      "æĬĢ": 930,
      "éķ¿": 931,
      "ack": 932,
      "ĠN": 933,
      "Ġdiff": 934,
      "Ġthis": 935,
      "åĿ": 936,
      "Ġensure": 937,
      "å½ĵ": 938,
      "Ġout": 939,
      "Ġcl": 940,
      "Ġk": 941,
      "é¦": 942,
      "ount": 943,
      "çİ¯": 944,
      "åĬ©": 945,
      "Ġtechnolo": 946,
      "Ġthese": 947,
      "ful": 948,
      "éļ": 949,
      "æ·": 950,
      "ä¸ĢäºĽ": 951,
      "Ġsoc": 952,
      "å¼Ģ": 953,
      "å¤©": 954,
      "Ġev": 955,
      "Ġredu": 956,
      "Ġthem": 957,
      "Ġ(": 958,
      "éĥ½": 959,
      "æĪ·": 960,
      "è·": 961,
      "åľº": 962,
      "æ°Ķ": 963,
      "ĠY": 964,
      "è¯Ń": 965,
      "éĢļè¿ĩ": 966,
      "å±ķ": 967,
      "Ġco": 968,
      "å½±": 969,
      "ç¬": 970,
      "Ġanaly": 971,
      "æ¯Ķ": 972,
      "åħ¨": 973,
      "Ġimprove": 974,
      "ç»ĵ": 975,
      "å¹´": 976,
      "çķ": 977,
      "çĿĢ": 978,
      "Ġhum": 979,
      "Ġqu": 980,
      "ç®Ĺ": 981,
      "ĠO": 982,
      "é£Ł": 983,
      "ility": 984,
      "Ġsystems": 985,
      "åıĺ": 986,
      "ail": 987,
      "ç¼": 988,
      "çł": 989,
      "è¿Ļä¸ª": 990,
      "æıĲä¾Ľ": 991,
      "ase": 992,
      "åŀ": 993,
      "ments": 994,
      "Ġpot": 995,
      "Ġany": 996,
      "ä½Ĩ": 997,
      "Ġcons": 998,
      "ĠIt": 999,
      "æł¼": 1000,
      "Ġar": 1001,
      "æľ¯": 1002,
      "éĿŀ": 1003,
      "Ġdo": 1004,
      "Ġmay": 1005,
      "æĭ©": 1006,
      "ue": 1007,
      "éĢīæĭ©": 1008,
      "ry": 1009,
      "éĥ": 1010,
      "Ġlike": 1011,
      "ong": 1012,
      "èģ": 1013,
      "``": 1014,
      "ile": 1015,
      "æ±Ĥ": 1016,
      "Ġnew": 1017,
      "ient": 1018,
      "Ġimpact": 1019,
      "è¿ĺ": 1020,
      "æ³¨": 1021,
      "ä¹Ī": 1022,
      "çĽ®": 1023,
      "âĢľ": 1024,
      "âĢĿ": 1025,
      "ef": 1026,
      "ä¾ĭ": 1027,
      "Ġpotential": 1028,
      "ok": 1029,
      "åı¯èĥ½": 1030,
      "Ġtrans": 1031,
      "Ġact": 1032,
      "ï¼ī": 1033,
      "Ġspec": 1034,
      "æ¶": 1035,
      "Ġwill": 1036,
      "äº¤": 1037,
      "ize": 1038,
      "ç¾İ": 1039,
      "å¸Ĥ": 1040,
      "Ġstud": 1041,
      "pon": 1042,
      "èº": 1043,
      "ä¸įåĲĮ": 1044,
      "one": 1045,
      "å¾Ī": 1046,
      "åıĬ": 1047,
      "å¦Ĥæŀľ": 1048,
      "çĲĥ": 1049,
      "ange": 1050,
      "Ġneed": 1051,
      "å¤ĸ": 1052,
      "ety": 1053,
      "aking": 1054,
      "è¯·": 1055,
      "ater": 1056,
      "Ġperson": 1057,
      "ident": 1058,
      "Ġso": 1059,
      "Ġmake": 1060,
      "å¹³": 1061,
      "å¤Ł": 1062,
      "èº«": 1063,
      "ï¼Ī": 1064,
      "Ġinform": 1065,
      "æ¡": 1066,
      "äºĭ": 1067,
      "åıĹ": 1068,
      "ased": 1069,
      "ild": 1070,
      "Ġoff": 1071,
      "Ġthere": 1072,
      "cis": 1073,
      "è¢": 1074,
      "éĥ¨": 1075,
      "æ¯ı": 1076,
      "ract": 1077,
      "ass": 1078,
      "Ġlearning": 1079,
      "åĸ": 1080,
      "å½¢": 1081,
      "ire": 1082,
      "ä»İ": 1083,
      "bots": 1084,
      "èĻ": 1085,
      "å¸®": 1086,
      "Ġdes": 1087,
      "ĠIn": 1088,
      "cess": 1089,
      "Ġpe": 1090,
      "ify": 1091,
      "Ġwho": 1092,
      "ä¹ł": 1093,
      "æľŁ": 1094,
      "Ġexperi": 1095,
      "éĤ": 1096,
      "Ġsc": 1097,
      "ep": 1098,
      "ä½ķ": 1099,
      "Ġtime": 1100,
      "éĿŀå¸¸": 1101,
      "æĭ¬": 1102,
      "åķ": 1103,
      "ä»¥ä¸ĭ": 1104,
      "éģĵ": 1105,
      "Ġcommun": 1106,
      "Ġcould": 1107,
      "ap": 1108,
      "èĲ": 1109,
      "è°ĥ": 1110,
      "lic": 1111,
      "duct": 1112,
      "Ġits": 1113,
      "cy": 1114,
      "è¯´": 1115,
      "Ġmed": 1116,
      "Ġcol": 1117,
      "ular": 1118,
      "éĩįè¦ģ": 1119,
      "Ġsp": 1120,
      "åĪ©": 1121,
      "èµ·": 1122,
      "Ġprovid": 1123,
      "ices": 1124,
      "åĻ": 1125,
      "æĸĻ": 1126,
      "Ġimport": 1127,
      "ural": 1128,
      "åŃĹ": 1129,
      "Ġund": 1130,
      "int": 1131,
      "Ġover": 1132,
      "åı¸": 1133,
      "æł¹": 1134,
      "é¥": 1135,
      "ples": 1136,
      "ä»ĸä»¬": 1137,
      "gra": 1138,
      "uring": 1139,
      "now": 1140,
      "åįķ": 1141,
      "è¿ĻäºĽ": 1142,
      "åīį": 1143,
      "å®ī": 1144,
      "Ġpr": 1145,
      "åĮħæĭ¬": 1146,
      "ç»Ļ": 1147,
      "The": 1148,
      "ä½į": 1149,
      "å§": 1150,
      "ç´ł": 1151,
      "åĳĺ": 1152,
      "Ġident": 1153,
      "åŀĭ": 1154,
      "Ġadd": 1155,
      "å¼º": 1156,
      "æĺ¯ä¸Ģ": 1157,
      "ip": 1158,
      "gor": 1159,
      "Ġsupport": 1160,
      "ne": 1161,
      "Ġdiffere": 1162,
      "åħĥ": 1163,
      "Ġass": 1164,
      "åĨ³": 1165,
      "éĽ": 1166,
      "åĲį": 1167,
      "Ġgo": 1168,
      "Ġtechnology": 1169,
      "æĢ»": 1170,
      "è®®": 1171,
      "Ġinter": 1172,
      "Ġinv": 1173,
      "Ġour": 1174,
      "æķĪ": 1175,
      "ustom": 1176,
      "Ġrel": 1177,
      "ife": 1178,
      "åĻ¨": 1179,
      "ings": 1180,
      "ä»·": 1181,
      "Ġpart": 1182,
      "è¢«": 1183,
      "æīĭ": 1184,
      "ary": 1185,
      "Ġrespon": 1186,
      "ĊĠĠĠ": 1187,
      "å¥½çļĦ": 1188,
      "ative": 1189,
      "å¸®åĬ©": 1190,
      "ç»Ł": 1191,
      "æĶ¾": 1192,
      "ĠHere": 1193,
      "çģ": 1194,
      "Ġbut": 1195,
      "æģ¯": 1196,
      "æŃ£": 1197,
      "ark": 1198,
      "åħ¬åı¸": 1199,
      "ory": 1200,
      "å¢ĥ": 1201,
      "lect": 1202,
      "éŁ": 1203,
      "æĥ³": 1204,
      "é£İ": 1205,
      "ating": 1206,
      "Ġam": 1207,
      "its": 1208,
      "æ»": 1209,
      "gorith": 1210,
      "åĵį": 1211,
      "ures": 1212,
      "Ġeffect": 1213,
      "Ġshould": 1214,
      "Ġper": 1215,
      "è±": 1216,
      "ç²": 1217,
      "ict": 1218,
      "Ġalgorith": 1219,
      "uc": 1220,
      "rough": 1221,
      "ä»»": 1222,
      "ä»¶": 1223,
      "Ġbet": 1224,
      "ia": 1225,
      "Ġanalyz": 1226,
      "æł¹æį®": 1227,
      "ized": 1228,
      "æµģ": 1229,
      "è§Ĥ": 1230,
      "è£": 1231,
      "æłĩ": 1232,
      "iron": 1233,
      "Ġcustom": 1234,
      "Ġreg": 1235,
      "Ġpersonal": 1236,
      "èĥ½å¤Ł": 1237,
      "ics": 1238,
      "ivid": 1239,
      "çĪ": 1240,
      "èµĦ": 1241,
      "æŃ¥": 1242,
      "å®¹": 1243,
      "åĪĽ": 1244,
      "èĪ": 1245,
      "ä¹Ĳ": 1246,
      "å¯¼": 1247,
      "gan": 1248,
      "èĬĤ": 1249,
      "Ġall": 1250,
      "ens": 1251,
      "ame": 1252,
      "ness": 1253,
      "Ġup": 1254,
      "ĠU": 1255,
      "èĢĥ": 1256,
      "elf": 1257,
      "åĢ¼": 1258,
      "å°ĳ": 1259,
      "æľį": 1260,
      "ari": 1261,
      "thical": 1262,
      "viron": 1263,
      "èĥ": 1264,
      "ord": 1265,
      "Ġsign": 1266,
      "éĩĮ": 1267,
      "ound": 1268,
      "ople": 1269,
      "åŁº": 1270,
      "Ġinformation": 1271,
      "Ġidentify": 1272,
      "åĽŀ": 1273,
      "Ġcre": 1274,
      "éŁ³": 1275,
      "ible": 1276,
      "ub": 1277,
      "è¿Ĳ": 1278,
      "Ġlead": 1279,
      "æ¸¸": 1280,
      "æ¬¡": 1281,
      "åĨĻ": 1282,
      "éĤ£": 1283,
      "get": 1284,
      "èį": 1285,
      "Ġexample": 1286,
      "ä¼ĺ": 1287,
      "å½±åĵį": 1288,
      "ish": 1289,
      "xt": 1290,
      "æº": 1291,
      "éªĮ": 1292,
      "ob": 1293,
      "å®¢": 1294,
      "å¤ĩ": 1295,
      "åģ¥": 1296,
      "è½¦": 1297,
      "ç¤¾": 1298,
      "ividual": 1299,
      "ered": 1300,
      "les": 1301,
      "Ġenviron": 1302,
      "Ġpeople": 1303,
      "æĺŁ": 1304,
      "çĸ": 1305,
      "çĭ": 1306,
      "Ġdet": 1307,
      "æĹł": 1308,
      "Ġif": 1309,
      "ose": 1310,
      "ite": 1311,
      "å¢ŀ": 1312,
      "éĴ": 1313,
      "åĲĮæĹ¶": 1314,
      "è¿°": 1315,
      "æĸ¹å¼ı": 1316,
      "åĽ½": 1317,
      "é»": 1318,
      "å¤Ħ": 1319,
      "Ġexamples": 1320,
      "æ®": 1321,
      "Ġinto": 1322,
      "æĮĩ": 1323,
      "Ġhuman": 1324,
      "åĲĳ": 1325,
      "ç¤º": 1326,
      "æķ°æį®": 1327,
      "Ġ3": 1328,
      "ĠJ": 1329,
      "èı": 1330,
      "çİ¯å¢ĥ": 1331,
      "als": 1332,
      "erst": 1333,
      "Ġethical": 1334,
      "ç»Ħ": 1335,
      "ä¼ł": 1336,
      "Ġdifferent": 1337,
      "Ġknow": 1338,
      "åºı": 1339,
      "Ġindividual": 1340,
      "æıĲé«ĺ": 1341,
      "round": 1342,
      "å°±": 1343,
      "åıĸ": 1344,
      "åŃĺ": 1345,
      "ä¸¤": 1346,
      "çŁ¥": 1347,
      "ources": 1348,
      "ck": 1349,
      "å£": 1350,
      "ines": 1351,
      "è¾¾": 1352,
      "Ġmany": 1353,
      "æķ´": 1354,
      "æł·": 1355,
      "ditional": 1356,
      "omm": 1357,
      "çĶ±": 1358,
      "éĢł": 1359,
      "å®ĥä»¬": 1360,
      "ues": 1361,
      "Ġment": 1362,
      "Ġimportant": 1363,
      "Ġopt": 1364,
      "Ġloc": 1365,
      "ph": 1366,
      "Ġprocess": 1367,
      "Ġalgorithms": 1368,
      "è®¾è®¡": 1369,
      "Ġsocial": 1370,
      "very": 1371,
      "åĪĻ": 1372,
      "ä¾ĭå¦Ĥ": 1373,
      "è®¤": 1374,
      "Ġaut": 1375,
      "Ġserv": 1376,
      "gg": 1377,
      "äº§åĵģ": 1378,
      "è§Ħ": 1379,
      "çľĭ": 1380,
      "vel": 1381,
      "æĸ¹æ³ķ": 1382,
      "Ġben": 1383,
      "åĽłæŃ¤": 1384,
      "care": 1385,
      "per": 1386,
      "åĬŁ": 1387,
      "å»ºè®®": 1388,
      "Ġpos": 1389,
      "æ¤": 1390,
      "we": 1391,
      "åĮº": 1392,
      "iqu": 1393,
      "Ġreal": 1394,
      "æĹ¥": 1395,
      "Ġreduce": 1396,
      "af": 1397,
      "angu": 1398,
      "Ġsk": 1399,
      "Ġed": 1400,
      "erstand": 1401,
      "åĨµ": 1402,
      "mot": 1403,
      "åħĪ": 1404,
      "ç¥": 1405,
      "åºĶè¯¥": 1406,
      "Ġthrough": 1407,
      "Ġconc": 1408,
      "åıĳå±ķ": 1409,
      "è¯ķ": 1410,
      "æ¡Ī": 1411,
      "Ġenvironment": 1412,
      "åı£": 1413,
      "Ġadv": 1414,
      "åĪ«": 1415,
      "Ġbenef": 1416,
      "æ¸ħ": 1417,
      "åĳ³": 1418,
      "åħī": 1419,
      "Ġdevelopment": 1420,
      "eng": 1421,
      "å¦Ĥä½ķ": 1422,
      "ç®¡": 1423,
      "ivers": 1424,
      "åĲĦ": 1425,
      "Ġris": 1426,
      "row": 1427,
      "ergy": 1428,
      "è®¡ç®Ĺ": 1429,
      "ä¿¡æģ¯": 1430,
      "Ġproduct": 1431,
      "è¾ĥ": 1432,
      "è®º": 1433,
      "èĩªå·±çļĦ": 1434,
      "æĬ¤": 1435,
      "åıį": 1436,
      "åħ¶ä»ĸ": 1437,
      "åĪĹ": 1438,
      "ç»Ĩ": 1439,
      "ç©º": 1440,
      "Ġgreat": 1441,
      "ear": 1442,
      "æºĲ": 1443,
      "ject": 1444,
      "çĶŁæ´»": 1445,
      "ä¸ŃçļĦ": 1446,
      "Ġunderstand": 1447,
      "èĭ": 1448,
      "hat": 1449,
      "Ġprogra": 1450,
      "çĬ": 1451,
      "éĩĳ": 1452,
      "Ġincluding": 1453,
      "Ġaccess": 1454,
      "ĠĠĠĠĠĠĠ": 1455,
      "è¯Ĩ": 1456,
      "ç¦": 1457,
      "og": 1458,
      "è£ħ": 1459,
      "Ġart": 1460,
      "Ġwrit": 1461,
      "Ġincre": 1462,
      "Ġph": 1463,
      "æĸ¹éĿ¢": 1464,
      "Ġpract": 1465,
      "Ġusing": 1466,
      "é¡¹": 1467,
      "æİ¥": 1468,
      "Ġways": 1469,
      "Ġlangu": 1470,
      "æĶ¯": 1471,
      "Ġchall": 1472,
      "åİ»": 1473,
      "____": 1474,
      "imate": 1475,
      "æĸŃ": 1476,
      "è¨": 1477,
      "Ġwell": 1478,
      "ll": 1479,
      "Ġpol": 1480,
      "æĢģ": 1481,
      "Ġra": 1482,
      "Can": 1483,
      "åİŁ": 1484,
      "ber": 1485,
      "è¨Ģ": 1486,
      "ç«ĭ": 1487,
      "Ġgen": 1488,
      "éħį": 1489,
      "æ·±": 1490,
      "te": 1491,
      "ä¸ī": 1492,
      "ç§ĳ": 1493,
      "ĠFor": 1494,
      "çº¿": 1495,
      "çħ": 1496,
      "æ¼": 1497,
      "åķĨ": 1498,
      "æĿĲ": 1499,
      "Ġsignific": 1500,
      "Ġgu": 1501,
      "Ġdecis": 1502,
      "Ġtrain": 1503,
      "Ġag": 1504,
      "Ġcreat": 1505,
      "å®Į": 1506,
      "æĹ¶éĹ´": 1507,
      "Ġone": 1508,
      "èĦ": 1509,
      "Ġnat": 1510,
      "åŃ¦ä¹ł": 1511,
      "çļĦæķ": 1512,
      "ced": 1513,
      "Ġwhen": 1514,
      "Ġbi": 1515,
      "èİ": 1516,
      "æĽ´åĬł": 1517,
      "ives": 1518,
      "port": 1519,
      "å·¥ä½ľ": 1520,
      "ving": 1521,
      "Ġbeen": 1522,
      "æĻº": 1523,
      "Ġlife": 1524,
      "å¼ķ": 1525,
      "arm": 1526,
      "çİĩ": 1527,
      "çĶ¨æĪ·": 1528,
      "ä¹ī": 1529,
      "ä»½": 1530,
      "è¯Ŀ": 1531,
      "iness": 1532,
      "com": 1533,
      "åº·": 1534,
      "åĩı": 1535,
      "ä»Ģ": 1536,
      "è¾ĵ": 1537,
      "Ġvari": 1538,
      "con": 1539,
      "Ġmod": 1540,
      "ä»Ģä¹Ī": 1541,
      "Ġenergy": 1542,
      "æĬĢæľ¯": 1543,
      "ertain": 1544,
      "mm": 1545,
      "verall": 1546,
      "åĪĴ": 1547,
      "Ġrobots": 1548,
      "Ġorgan": 1549,
      "æİ¨": 1550,
      "ants": 1551,
      "åĩĨ": 1552,
      "ds": 1553,
      "æŀģ": 1554,
      "çĻ": 1555,
      "Ġrequ": 1556,
      "Ġess": 1557,
      "ç®Ģ": 1558,
      "ustain": 1559,
      "æ¨": 1560,
      "Ġstr": 1561,
      "cing": 1562,
      "ability": 1563,
      "ree": 1564,
      "Ġeduc": 1565,
      "åİĨ": 1566,
      "Ġcreate": 1567,
      "åģ¥åº·": 1568,
      "Ġdesign": 1569,
      "ips": 1570,
      "åģļ": 1571,
      "èĬ±": 1572,
      "ink": 1573,
      "èıľ": 1574,
      "æī¾": 1575,
      "æ®µ": 1576,
      "æµĭ": 1577,
      "ĠV": 1578,
      "ĠBy": 1579,
      "åĶ": 1580,
      "é¦ĸ": 1581,
      "è¯į": 1582,
      "Ġwhere": 1583,
      "Ġdisc": 1584,
      "äºĨè§£": 1585,
      "ric": 1586,
      "ä¸Ķ": 1587,
      "è¶³": 1588,
      "æĺ¯ä¸Ģä¸ª": 1589,
      "arch": 1590,
      "ç§¯": 1591,
      "å¸¦": 1592,
      "Ġwhile": 1593,
      "Ġsignificant": 1594,
      "çłģ": 1595,
      "æĪ¿": 1596,
      "Ġbeing": 1597,
      "Ġlanguage": 1598,
      "itive": 1599,
      "20": 1600,
      "Ġanalyze": 1601,
      "æĻ¯": 1602,
      "èĮ": 1603,
      "rib": 1604,
      "æ¨¡": 1605,
      "ĠSt": 1606,
      "è´¹": 1607,
      "'t": 1608,
      "Ġhealthcare": 1609,
      "Ġexperience": 1610,
      "Ġ5": 1611,
      "ä¸ªäºº": 1612,
      "ays": 1613,
      "è±¡": 1614,
      "plo": 1615,
      "Ġwould": 1616,
      "èĻĳ": 1617,
      "æĶ¶": 1618,
      "é¢Ħ": 1619,
      "é¢Ĩ": 1620,
      "ä¿ĿæĮģ": 1621,
      "ences": 1622,
      "åıª": 1623,
      "èĩ´": 1624,
      "æĪı": 1625,
      "Ġmental": 1626,
      "Ġfew": 1627,
      "ates": 1628,
      "è¿ĩç¨ĭ": 1629,
      "å®īåħ¨": 1630,
      "Ġsustain": 1631,
      "Ġwere": 1632,
      "å¤ª": 1633,
      "çĮ": 1634,
      "Ġspecific": 1635,
      "Ġworld": 1636,
      "çŃĶ": 1637,
      "```": 1638,
      "Ġtake": 1639,
      "åħ»": 1640,
      "éĢŁ": 1641,
      "ever": 1642,
      "SS": 1643,
      "éĶĢ": 1644,
      "Ġbo": 1645,
      "hes": 1646,
      "Ġmus": 1647,
      "æľįåĬ¡": 1648,
      "è§Ĵ": 1649,
      "ten": 1650,
      "æŀĲ": 1651,
      "pow": 1652,
      "dict": 1653,
      "vent": 1654,
      "10": 1655,
      "çļĦæĹ": 1656,
      "ĸçķ": 1657,
      "Ġprot": 1658,
      "ç½®": 1659,
      "Ġhigh": 1660,
      "Ġbus": 1661,
      "Ġindust": 1662,
      "åĲ¦": 1663,
      "cial": 1664,
      "äººä»¬": 1665,
      "ĠAs": 1666,
      "åĳĬ": 1667,
      "ade": 1668,
      "æĶ¹": 1669,
      "çĹ": 1670,
      "Ġhad": 1671,
      "Ġher": 1672,
      "Ġjust": 1673,
      "ï¼Ľ": 1674,
      "è´Ń": 1675,
      "ç¬¬": 1676,
      "éĵ": 1677,
      "Ġwater": 1678,
      "Ġfood": 1679,
      "éĺŁ": 1680,
      "aus": 1681,
      "Ġchalleng": 1682,
      "åħį": 1683,
      "æĸĩåĮĸ": 1684,
      "Ġmost": 1685,
      "é¸": 1686,
      "ç½ĳ": 1687,
      "çĽ´": 1688,
      "Ġsm": 1689,
      "Ġactiv": 1690,
      "ploy": 1691,
      "Overall": 1692,
      "å¿«": 1693,
      "ruct": 1694,
      "Ġindividuals": 1695,
      "å§ĭ": 1696,
      "gies": 1697,
      "æŁ¥": 1698,
      "çĪ±": 1699,
      "iety": 1700,
      "In": 1701,
      "åĪĨæŀĲ": 1702,
      "è§Ĩ": 1703,
      "æ¸©": 1704,
      "ç»´": 1705,
      "olut": 1706,
      "åŁŁ": 1707,
      "ommend": 1708,
      "Ġcomple": 1709,
      "æķĻ": 1710,
      "Ġbu": 1711,
      "Ġeducation": 1712,
      "ather": 1713,
      "Ġ4": 1714,
      "ting": 1715,
      "Ġfind": 1716,
      "æ²¡": 1717,
      "Ġhis": 1718,
      "ä¹ĭéĹ´": 1719,
      "Ġeffective": 1720,
      "Ġatt": 1721,
      "Ġrese": 1722,
      "èĥ½åĬĽ": 1723,
      "åŁİ": 1724,
      "Ġallow": 1725,
      "Ġav": 1726,
      "Ġpromot": 1727,
      "æĻºèĥ½": 1728,
      "æ»¡": 1729,
      "åħ±": 1730,
      "iew": 1731,
      "come": 1732,
      "ç³»ç»Ł": 1733,
      "Ġrespons": 1734,
      "äºĴ": 1735,
      "Ġcult": 1736,
      "powered": 1737,
      "Ġrecommend": 1738,
      "èĲ¥": 1739,
      "OSS": 1740,
      "Ġchange": 1741,
      "è¯ģ": 1742,
      "ved": 1743,
      "æİĴ": 1744,
      "è§£åĨ³": 1745,
      "ici": 1746,
      "ĠHow": 1747,
      "Ġfeel": 1748,
      "æľĪ": 1749,
      "Ġwhat": 1750,
      "ä»¥åıĬ": 1751,
      "Ġsee": 1752,
      "åŃ©": 1753,
      "bs": 1754,
      "Ġsur": 1755,
      "æ£": 1756,
      "ality": 1757,
      "Ġvis": 1758,
      "ç¡®ä¿Ŀ": 1759,
      "pect": 1760,
      "å®ŀçİ°": 1761,
      "Ġcare": 1762,
      "å¹¿": 1763,
      "ills": 1764,
      "åºŃ": 1765,
      "ases": 1766,
      "å¤į": 1767,
      "åºĶçĶ¨": 1768,
      "çļĦæĥ": 1769,
      "ards": 1770,
      "Ġaddress": 1771,
      "Ġcompan": 1772,
      "Ġinvol": 1773,
      "Ġcustomer": 1774,
      "åĽłä¸º": 1775,
      "Ġstudents": 1776,
      "Ġins": 1777,
      "æ³¨æĦı": 1778,
      "æŀĦ": 1779,
      "æ¬¢": 1780,
      "æµ·": 1781,
      "åıĤ": 1782,
      "èĩªçĦ¶": 1783,
      "é©": 1784,
      "ĠThese": 1785,
      "wn": 1786,
      "æĺĵ": 1787,
      "çĬ¶": 1788,
      "ren": 1789,
      "Ġtreat": 1790,
      "Ġbenefits": 1791,
      "ĊĠĠĠĠĠĠĠ": 1792,
      "å¯¹äºİ": 1793,
      "æĢĿ": 1794,
      "ider": 1795,
      "ĠYes": 1796,
      "ĠK": 1797,
      "åĸľ": 1798,
      "Ġke": 1799,
      "Ġeng": 1800,
      "Ġpop": 1801,
      "ost": 1802,
      "pare": 1803,
      "Ġmon": 1804,
      "æ¬¾": 1805,
      "ĠMOSS": 1806,
      "Ġemot": 1807,
      "Ġac": 1808,
      "ç¼ĸ": 1809,
      "fore": 1810,
      "åı¥": 1811,
      "Ġval": 1812,
      "ily": 1813,
      "Ġiss": 1814,
      "èĤī": 1815,
      "èĩ³": 1816,
      "æ¸¸æĪı": 1817,
      "ween": 1818,
      "Ġinclude": 1819,
      "Ġprotect": 1820,
      "åħ³ç³»": 1821,
      "éĻ©": 1822,
      "Ġsever": 1823,
      "Ġthan": 1824,
      "éľĢæ±Ĥ": 1825,
      "ç»ĥ": 1826,
      "ĠThey": 1827,
      "iss": 1828,
      "ys": 1829,
      "Ġjob": 1830,
      "éĺ³": 1831,
      "æĲ": 1832,
      "Ġbetween": 1833,
      "Ġmach": 1834,
      "--------": 1835,
      "èĢĥèĻĳ": 1836,
      "è´¨éĩı": 1837,
      "Ġbusiness": 1838,
      "wor": 1839,
      "ick": 1840,
      "eg": 1841,
      "åħħ": 1842,
      "ç¯": 1843,
      "æĿ¡": 1844,
      "ner": 1845,
      "apt": 1846,
      "Ġappro": 1847,
      "Ġplay": 1848,
      "æ²¡æľī": 1849,
      "¤Ĳ": 1850,
      "æľª": 1851,
      "æĪĺ": 1852,
      "å®¶åºŃ": 1853,
      "ãĢĭ": 1854,
      "ency": 1855,
      "ĠCh": 1856,
      "ãĢĬ": 1857,
      "Ġproviding": 1858,
      "Ġresources": 1859,
      "âĢĻ": 1860,
      "Ġassist": 1861,
      "Ġnatural": 1862,
      "è¯Ħ": 1863,
      "ä¾¿": 1864,
      "Ġsaf": 1865,
      "åħ·æľī": 1866,
      "è°¢": 1867,
      "çĥŃ": 1868,
      "ss": 1869,
      "eth": 1870,
      "old": 1871,
      "Ġperform": 1872,
      "Ġseveral": 1873,
      "é¤Ĳ": 1874,
      "Ġeach": 1875,
      "è½¬": 1876,
      "ci": 1877,
      "Ġty": 1878,
      "Ġpub": 1879,
      "æ´»åĬ¨": 1880,
      "ocus": 1881,
      "çīĮ": 1882,
      "è¶Ĭ": 1883,
      "åĽ¢": 1884,
      "è½»": 1885,
      "è¯Ńè¨Ģ": 1886,
      "Ġareas": 1887,
      "éĩĩ": 1888,
      "ft": 1889,
      "riend": 1890,
      "å·²": 1891,
      "å¸Ĥåľº": 1892,
      "ition": 1893,
      "ients": 1894,
      "ç®¡çĲĨ": 1895,
      "è®¸": 1896,
      "äººç±»": 1897,
      "èº«ä½ĵ": 1898,
      "ique": 1899,
      "Ġpartic": 1900,
      "ç»Ń": 1901,
      "agement": 1902,
      "ves": 1903,
      "ç¬¦": 1904,
      "line": 1905,
      "çº¢": 1906,
      "åĲ¸": 1907,
      "Ġpatter": 1908,
      "000": 1909,
      "ç¤¾ä¼ļ": 1910,
      "åĨħå®¹": 1911,
      "Ġorganiz": 1912,
      "ough": 1913,
      "Ġve": 1914,
      "åŃ©åŃĲ": 1915,
      "æĸ½": 1916,
      "æ¤į": 1917,
      "åĩł": 1918,
      "ä½Ĩæĺ¯": 1919,
      "Ġaff": 1920,
      "Ġnum": 1921,
      "lement": 1922,
      "èīº": 1923,
      "èĳ": 1924,
      "Ġcar": 1925,
      "ages": 1926,
      "abor": 1927,
      "æĺ¯ä¸Ģç§į": 1928,
      "Ġinst": 1929,
      "èĽ": 1930,
      "ä¹ĭä¸Ģ": 1931,
      "è·¯": 1932,
      "åį³": 1933,
      "Ġmain": 1934,
      "éļı": 1935,
      "How": 1936,
      "å¿ħ": 1937,
      "ç¨ĭåºı": 1938,
      "éŁ³ä¹Ĳ": 1939,
      "red": 1940,
      "æ²¹": 1941,
      "Ġoffer": 1942,
      "ets": 1943,
      "ç¢": 1944,
      "Ġduring": 1945,
      "çļĦäºº": 1946,
      "æĽ´å¤ļ": 1947,
      "Ġdi": 1948,
      "ä»£çłģ": 1949,
      "èİ·": 1950,
      "åħĭ": 1951,
      "Ġguid": 1952,
      "ä¸»è¦ģ": 1953,
      "Ġfam": 1954,
      "æİ§": 1955,
      "éĢļå¸¸": 1956,
      "ĠAd": 1957,
      "å¤ĦçĲĨ": 1958,
      "urn": 1959,
      "ower": 1960,
      "åĳ½": 1961,
      "æıı": 1962,
      "Ġskills": 1963,
      "Ġtool": 1964,
      "ware": 1965,
      "æĸĩæľ¬": 1966,
      "Ġpatterns": 1967,
      "çĽ®æłĩ": 1968,
      "acy": 1969,
      "æīĵ": 1970,
      "åŁİå¸Ĥ": 1971,
      "Ġevery": 1972,
      "ries": 1973,
      "è¯»": 1974,
      "éģ¿": 1975,
      "çĻ½": 1976,
      "éĢĤåĲĪ": 1977,
      "Ġpatient": 1978,
      "çľŁ": 1979,
      "oth": 1980,
      "å¥¹": 1981,
      "åĶ®": 1982,
      "ä¸Ģç§į": 1983,
      "Ġmade": 1984,
      "ä½İ": 1985,
      "ise": 1986,
      "Ġrem": 1987,
      "æ¶Ī": 1988,
      "åĲ«": 1989,
      "air": 1990,
      "Ġgener": 1991,
      "oy": 1992,
      "ç²¾": 1993,
      "æĥħåĨµ": 1994,
      "ights": 1995,
      "Ġexpl": 1996,
      "è§ģ": 1997,
      "Ġpredict": 1998,
      "ç±³": 1999,
      "æĽ´å¥½": 2000,
      "ä¿®": 2001,
      "Ġclimate": 2002,
      "Ġfocus": 2003,
      "Ġgrow": 2004,
      "å®¢æĪ·": 2005,
      "ä¸įæĸŃ": 2006,
      "itor": 2007,
      "ĠEn": 2008,
      "çº¦": 2009,
      "æĺ¯åĲ¦": 2010,
      "ä»ħ": 2011,
      "æĪĳä»¬çļĦ": 2012,
      "æľĽ": 2013,
      "op": 2014,
      "Ġmaking": 2015,
      "yth": 2016,
      "ccess": 2017,
      "Ġown": 2018,
      "ggest": 2019,
      "Ġtas": 2020,
      "uture": 2021,
      "Ġmodel": 2022,
      "put": 2023,
      "Ġresearch": 2024,
      "erest": 2025,
      "éļ¾": 2026,
      "Ġ[": 2027,
      "iel": 2028,
      "ational": 2029,
      "Ġcommunic": 2030,
      "ç¥ŀ": 2031,
      "ç©¶": 2032,
      "Ġrest": 2033,
      "æĪĲä¸º": 2034,
      "king": 2035,
      "pr": 2036,
      "åĮ»": 2037,
      "cur": 2038,
      "èĤ²": 2039,
      "Ġ'": 2040,
      "è¿Ļç§į": 2041,
      "ç¯ĩ": 2042,
      "Ġche": 2043,
      "own": 2044,
      "éĻħ": 2045,
      "Ġfin": 2046,
      "åĪ¶ä½ľ": 2047,
      "Ġsuggest": 2048,
      "å¢ŀåĬł": 2049,
      "Ġmedia": 2050,
      "ribut": 2051,
      "çļĦæĥħ": 2052,
      "åĬłåħ¥": 2053,
      "Ġcle": 2054,
      "åĳ¨": 2055,
      "ç«ł": 2056,
      "Ġthink": 2057,
      "Ġlocal": 2058,
      "pportun": 2059,
      "ĠYou": 2060,
      "Ġplan": 2061,
      "Ġeven": 2062,
      "éĽĨ": 2063,
      "å·§": 2064,
      "ax": 2065,
      "Ġchallenges": 2066,
      "Ġprof": 2067,
      "ĠCan": 2068,
      "Ġconcer": 2069,
      "Ġfuture": 2070,
      "åĬ¿": 2071,
      "Ġref": 2072,
      "èģĶ": 2073,
      "Ġself": 2074,
      "æĪĸèĢħ": 2075,
      "ble": 2076,
      "åĽ´": 2077,
      "è¿ĲåĬ¨": 2078,
      "Ġinf": 2079,
      "éĩĬ": 2080,
      "Ġsustainable": 2081,
      "Ġtext": 2082,
      "Ġgra": 2083,
      "äºĮ": 2084,
      "åĵģçīĮ": 2085,
      "ä¸įåĲĮçļĦ": 2086,
      "led": 2087,
      "çĭ¬": 2088,
      "Ġopportun": 2089,
      "Ġcontin": 2090,
      "ym": 2091,
      "Ġget": 2092,
      "å¯Ĩ": 2093,
      "éĻ¤": 2094,
      "æħ": 2095,
      "éģ¿åħį": 2096,
      "Ġ+": 2097,
      "è§ī": 2098,
      "Ġret": 2099,
      "å¸ĥ": 2100,
      "Ġinterest": 2101,
      "Ġsociety": 2102,
      "ç»ĵæŀľ": 2103,
      "åĲ¬": 2104,
      "é¦ĸåħĪ": 2105,
      "Ġbre": 2106,
      "Ġ20": 2107,
      "ĠHowever": 2108,
      "è®°": 2109,
      "ons": 2110,
      "è¿ĳ": 2111,
      "å¼Ģå§ĭ": 2112,
      "Ġbuild": 2113,
      "Ġbeh": 2114,
      "'m": 2115,
      "vers": 2116,
      "Ġgood": 2117,
      "çĲĨè§£": 2118,
      "resent": 2119,
      "ç¦»": 2120,
      "åĬŁèĥ½": 2121,
      "Ġeffort": 2122,
      "labor": 2123,
      "é»ĳ": 2124,
      "Ġbetter": 2125,
      "Ġread": 2126,
      "å¾ĭ": 2127,
      "èĽĭ": 2128,
      "hed": 2129,
      "ä¹°": 2130,
      "å¯¼èĩ´": 2131,
      "Ġimplement": 2132,
      "ç¿": 2133,
      "äº«": 2134,
      "å¤´": 2135,
      "ense": 2136,
      "Ġlong": 2137,
      "other": 2138,
      "é¥®": 2139,
      "åŃĺåľ¨": 2140,
      "çļĦæĦ": 2141,
      "ä¸Ģä»½": 2142,
      "ython": 2143,
      "ning": 2144,
      "åĩıå°ĳ": 2145,
      "åĢĻ": 2146,
      "ä¸ĵ": 2147,
      "åĲĦç§į": 2148,
      "èħ": 2149,
      "å°½": 2150,
      "åįĩ": 2151,
      "æĬ¥": 2152,
      "Ġpublic": 2153,
      "Ġlar": 2154,
      "ä½łçļĦ": 2155,
      "aut": 2156,
      "é¢ĨåŁŁ": 2157,
      "æļ": 2158,
      "ollow": 2159,
      "èģĮ": 2160,
      "Ġchang": 2161,
      "Ġbest": 2162,
      "hip": 2163,
      "åĨį": 2164,
      "akes": 2165,
      "Ġchat": 2166,
      "ited": 2167,
      "Ġpower": 2168,
      "ä¿ĿæĬ¤": 2169,
      "ä¹¦": 2170,
      "è®¡åĪĴ": 2171,
      "éĩįè¦ģçļĦ": 2172,
      "åıĺåĮĸ": 2173,
      "ilities": 2174,
      "Ġconsider": 2175,
      "æĪĳä»¬åı¯ä»¥": 2176,
      "éĤ£ä¹Ī": 2177,
      "Ġide": 2178,
      "æ¼Ķ": 2179,
      "aging": 2180,
      "Ġbased": 2181,
      "å®Ŀ": 2182,
      "Ġrange": 2183,
      "Ġresult": 2184,
      "Ġmem": 2185,
      "çħ§": 2186,
      "Ġlevel": 2187,
      "cou": 2188,
      "Ġbr": 2189,
      "Th": 2190,
      "ä¼ģ": 2191,
      "å»ºç«ĭ": 2192,
      "Ġunique": 2193,
      "è®Ń": 2194,
      "Ġmark": 2195,
      "è®¸å¤ļ": 2196,
      "è¡Įä¸º": 2197,
      "Ķç©¶": 2198,
      "çļĦæĬ": 2199,
      "Ġset": 2200,
      "éª¤": 2201,
      "ts": 2202,
      "Ġhist": 2203,
      "Ġaround": 2204,
      "Ġrev": 2205,
      "åħ¶ä¸Ń": 2206,
      "ï¼ģ": 2207,
      "æııè¿°": 2208,
      "æľĢåĲİ": 2209,
      "Ġsim": 2210,
      "nect": 2211,
      "åĽŀçŃĶ": 2212,
      "éĺ²": 2213,
      "èī¯": 2214,
      "åĪ°äºĨ": 2215,
      "ä¸ĸçķ": 2216,
      "æĸ¹æ¡Ī": 2217,
      "æĿĲæĸĻ": 2218,
      "ä¸ĸçķĮ": 2219,
      "æĽ´å¥½åľ°": 2220,
      "ä¸¤ä¸ª": 2221,
      "Ġemploy": 2222,
      "Ġtry": 2223,
      "æĵ": 2224,
      "Ġback": 2225,
      "åĪĩ": 2226,
      "Ġsuccess": 2227,
      "Ġdecisions": 2228,
      "Ġthose": 2229,
      "å¯Į": 2230,
      "Ġfact": 2231,
      "æİ¢": 2232,
      "è¶£": 2233,
      "Ġpractices": 2234,
      "åĲĹ": 2235,
      "æīį": 2236,
      "çİ©": 2237,
      "ption": 2238,
      "æĸĩç«ł": 2239,
      "Ġfeat": 2240,
      "Ġprevent": 2241,
      "Ġwriting": 2242,
      "çļĦæĢ": 2243,
      "Ġno": 2244,
      "ä»ĭ": 2245,
      "éĹ¨": 2246,
      "Ġdel": 2247,
      "æĴ": 2248,
      "Ġoptim": 2249,
      "ination": 2250,
      "ĠĊ": 2251,
      "usion": 2252,
      "Ġaccount": 2253,
      "ling": 2254,
      "Ġdivers": 2255,
      ".\"": 2256,
      "ath": 2257,
      "èĭ±": 2258,
      "ä¼ģä¸ļ": 2259,
      "Ġgrou": 2260,
      "åľ°çĲĥ": 2261,
      "å¤±": 2262,
      "Ġpersonalized": 2263,
      "ĠHe": 2264,
      "è¡¨è¾¾": 2265,
      "curity": 2266,
      "Ġfollow": 2267,
      "äº§çĶŁ": 2268,
      "Ġear": 2269,
      "åİĭ": 2270,
      "vern": 2271,
      "Ġissues": 2272,
      "åĿĩ": 2273,
      "é²": 2274,
      "Ġdr": 2275,
      "iving": 2276,
      "Ġtraining": 2277,
      "Ġrisk": 2278,
      "åĩ½": 2279,
      "åı²": 2280,
      "æĳ": 2281,
      "çļĦæĹ¶": 2282,
      "ogn": 2283,
      "Ġrequire": 2284,
      "Ġenvironmental": 2285,
      "back": 2286,
      "éĶ®": 2287,
      "çĸĹ": 2288,
      "Ġinteract": 2289,
      "åĽ¢éĺŁ": 2290,
      "æ¯ıä¸ª": 2291,
      "çĦ¶åĲİ": 2292,
      "Ġdist": 2293,
      "çĶ¨äºİ": 2294,
      "è®¤ä¸º": 2295,
      "åĩ½æķ°": 2296,
      "Ġsent": 2297,
      "ĊĠĠĠĠĠĠĠĠ": 2298,
      "Ġreducing": 2299,
      "å¹²": 2300,
      "Ġrep": 2301,
      "Ġcaus": 2302,
      "Ġmusic": 2303,
      "çª": 2304,
      "Ġmonitor": 2305,
      "Ġform": 2306,
      "é¢ľ": 2307,
      "çĹħ": 2308,
      "é¦Ļ": 2309,
      "Ġoften": 2310,
      "åı¯èĥ½ä¼ļ": 2311,
      "åĳĺå·¥": 2312,
      "Ġhand": 2313,
      "æĬķ": 2314,
      "Ġneeds": 2315,
      "æŃ¤å¤ĸ": 2316,
      "åıĭ": 2317,
      "ivity": 2318,
      "Ġactivities": 2319,
      "åĸľæ¬¢": 2320,
      "Ġpur": 2321,
      "ian": 2322,
      "self": 2323,
      "åĬ¨çī©": 2324,
      "comes": 2325,
      "å©": 2326,
      "Ġpriv": 2327,
      "az": 2328,
      "Ġrelations": 2329,
      "Ġmachine": 2330,
      "çļĦæ°": 2331,
      "ä»·æł¼": 2332,
      "ä»·åĢ¼": 2333,
      "ç´¢": 2334,
      "Ġfeed": 2335,
      "ä¸Ģä¸ĭ": 2336,
      "Ġteam": 2337,
      "Ġindustry": 2338,
      "è´¢": 2339,
      "ĠPro": 2340,
      "Ġwant": 2341,
      "ç§°": 2342,
      "Ġclass": 2343,
      "Ġlove": 2344,
      "åħ³äºİ": 2345,
      "è¾ĵåħ¥": 2346,
      "Ġtransport": 2347,
      "Ġcomplex": 2348,
      "Ġyear": 2349,
      "éĶĢåĶ®": 2350,
      "å¯»": 2351,
      "ience": 2352,
      "ists": 2353,
      "æĶ¯æĮģ": 2354,
      "Ġmind": 2355,
      "Ġfun": 2356,
      "Ġchar": 2357,
      "æĮī": 2358,
      "Ġconcerns": 2359,
      "conom": 2360,
      "ç®Ģåįķ": 2361,
      "ä»¥ä¸ĭæĺ¯": 2362,
      "Ġstart": 2363,
      "å¹¶ä¸Ķ": 2364,
      "avi": 2365,
      "ä¸ŃåĽ½": 2366,
      "åħĥç´ł": 2367,
      "Ġconf": 2368,
      "Ġpositive": 2369,
      "Ġcur": 2370,
      "Ġcount": 2371,
      "ery": 2372,
      "å¡": 2373,
      "å®¤": 2374,
      "Ġcost": 2375,
      "Ġequ": 2376,
      "Ġpolic": 2377,
      "aste": 2378,
      "aw": 2379,
      "éħĴ": 2380,
      "coura": 2381,
      "iven": 2382,
      "place": 2383,
      "chie": 2384,
      "çļĦæķ°": 2385,
      "åĽłç´ł": 2386,
      "Ġfl": 2387,
      "ism": 2388,
      "Ġmedical": 2389,
      "Ġhumans": 2390,
      "Ġautom": 2391,
      "ertainly": 2392,
      "Ġ0": 2393,
      "Ġoffers": 2394,
      "Ġdetect": 2395,
      "Ġ6": 2396,
      "é£İæł¼": 2397,
      "Ġshow": 2398,
      "çģ«": 2399,
      "Ġanim": 2400,
      "é¢ľèī²": 2401,
      "lease": 2402,
      "ave": 2403,
      "åĵª": 2404,
      "ĠThere": 2405,
      "ä»¥ä¸Ĭ": 2406,
      "æľªæĿ¥": 2407,
      "XX": 2408,
      "çīĩ": 2409,
      "uch": 2410,
      "Ġtasks": 2411,
      "åħ·ä½ĵ": 2412,
      "æ¤įçī©": 2413,
      "Ġmin": 2414,
      "èīºæľ¯": 2415,
      "icult": 2416,
      "Ġexperiences": 2417,
      "æİ§åĪ¶": 2418,
      "be": 2419,
      "Ġpatients": 2420,
      "å²": 2421,
      "ĠWe": 2422,
      "Ġrecogn": 2423,
      "çĥ¤": 2424,
      "Ġsmall": 2425,
      "åĿĹ": 2426,
      "åĦ": 2427,
      "å¤ªéĺ³": 2428,
      "ction": 2429,
      "Ġent": 2430,
      "æį¢": 2431,
      "Ġbefore": 2432,
      "Ġbecome": 2433,
      "å·²ç»ı": 2434,
      "è¡¨çİ°": 2435,
      "Ġexplo": 2436,
      "Ġachie": 2437,
      "ä»»åĬ¡": 2438,
      "å¤§çļĦ": 2439,
      "Ġday": 2440,
      "Ġfound": 2441,
      "å±±": 2442,
      "ond": 2443,
      "Ġtreatment": 2444,
      "pend": 2445,
      "hen": 2446,
      "Ġcondit": 2447,
      "ç¡®å®ļ": 2448,
      "Ġbusinesses": 2449,
      "ĠWh": 2450,
      "æīĢæľī": 2451,
      "Ġdeveloped": 2452,
      "ç»Ī": 2453,
      "æŃ¥éª¤": 2454,
      "Ġdifficult": 2455,
      "åı·": 2456,
      "ĠRe": 2457,
      "éĶĻ": 2458,
      "Ġcho": 2459,
      "Ġquest": 2460,
      "Ġtranspare": 2461,
      "Ġproject": 2462,
      "Ġcommunity": 2463,
      "ov": 2464,
      "å¸Ī": 2465,
      "å¼ł": 2466,
      "åĪĨç±»": 2467,
      "äººçļĦ": 2468,
      "sis": 2469,
      "çĽĬ": 2470,
      "oid": 2471,
      "ĠAn": 2472,
      "ways": 2473,
      "Ġeas": 2474,
      "Ġaffect": 2475,
      "Ġothers": 2476,
      "Ġregul": 2477,
      "æĢ§åĴĮ": 2478,
      "åĸĦ": 2479,
      "agn": 2480,
      "ä½ľä¸º": 2481,
      "åı¯ä»¥å¸®åĬ©": 2482,
      "åĦ¿": 2483,
      "Ġorganizations": 2484,
      "é¸¡": 2485,
      "åħ´": 2486,
      "Ġfriend": 2487,
      "Ġ$": 2488,
      "Ġdetail": 2489,
      "Ġtraditional": 2490,
      "Ġdesigned": 2491,
      "è´Ńä¹°": 2492,
      "ä½ĵéªĮ": 2493,
      "ç»į": 2494,
      "erm": 2495,
      "Ġconnect": 2496,
      "è¿Ļæł·": 2497,
      "Ġrecommendations": 2498,
      "Ġboth": 2499,
      "ŁéĢļ": 2500,
      "æ¯į": 2501,
      "Ġsit": 2502,
      "ä½ľçĶ¨": 2503,
      "ä»ĭç»į": 2504,
      "Ġste": 2505,
      "ĠSure": 2506,
      "åı°": 2507,
      "æĤ¨çļĦ": 2508,
      "Ġshe": 2509,
      "Ġmanagement": 2510,
      "joy": 2511,
      "è´Ł": 2512,
      "Ġpromote": 2513,
      "Ġvarious": 2514,
      "(\"": 2515,
      "por": 2516,
      "Ġsens": 2517,
      "Ġessential": 2518,
      "gether": 2519,
      "ularly": 2520,
      "äºī": 2521,
      "irst": 2522,
      "Ġop": 2523,
      "Ġspecies": 2524,
      "çİ°åľ¨": 2525,
      "cho": 2526,
      "Ġbehavi": 2527,
      "çŃĳ": 2528,
      "å¥³": 2529,
      "Ġquality": 2530,
      "Ġext": 2531,
      "è¥": 2532,
      "å®ĮæĪĲ": 2533,
      "æĢ»ä¹ĭ": 2534,
      "éĥ¨åĪĨ": 2535,
      "ä»İèĢĮ": 2536,
      "åĽ¾": 2537,
      "Ġtyp": 2538,
      "Ġstrate": 2539,
      "è¥¿": 2540,
      "Ġhere": 2541,
      "ars": 2542,
      "å¸Į": 2543,
      "çļĦæĿ": 2544,
      "å°Ŀ": 2545,
      "ee": 2546,
      "ier": 2547,
      "Ġec": 2548,
      "ically": 2549,
      "ering": 2550,
      "å¿µ": 2551,
      "ĠDe": 2552,
      "Ġneg": 2553,
      "å»ºçŃĳ": 2554,
      "Ġservices": 2555,
      "Ġable": 2556,
      "imes": 2557,
      "Ġoptions": 2558,
      "çĽ¸åħ³": 2559,
      "Ġsub": 2560,
      "Ġdecision": 2561,
      "ĠCertainly": 2562,
      "Ġåľ¨": 2563,
      "æ¢": 2564,
      "Ġservice": 2565,
      "):": 2566,
      "å¸¦æĿ¥": 2567,
      "Ġchild": 2568,
      "è§£éĩĬ": 2569,
      "irt": 2570,
      "çĨ": 2571,
      "ä¸įä»ħ": 2572,
      "æĿ¾": 2573,
      "ç§¯æŀģ": 2574,
      "ron": 2575,
      "åı¤": 2576,
      "çłĶç©¶": 2577,
      "ç²ī": 2578,
      "hor": 2579,
      "Ġprofess": 2580,
      "çļĦéĹ®é¢ĺ": 2581,
      "Ġopportunities": 2582,
      "åİĨåı²": 2583,
      "Ġdef": 2584,
      "ĠAm": 2585,
      "Ġgr": 2586,
      "aur": 2587,
      "å±Ĥ": 2588,
      "çŃĸ": 2589,
      "Ġpopular": 2590,
      "æ´ģ": 2591,
      "åıĳçİ°": 2592,
      "Ġpoem": 2593,
      "èµĽ": 2594,
      "Ġob": 2595,
      "Ġdon": 2596,
      "Ġsound": 2597,
      "Ġtransportation": 2598,
      "ious": 2599,
      "åı¦": 2600,
      "Ġrole": 2601,
      "Ġfiel": 2602,
      "ç§ĳåŃ¦": 2603,
      "èĢģ": 2604,
      "reen": 2605,
      "æľīæķĪ": 2606,
      "Ġcor": 2607,
      "Ġfeedback": 2608,
      "Ġtechnologies": 2609,
      "äº¤éĢļ": 2610,
      "Ġadapt": 2611,
      "'re": 2612,
      "ervation": 2613,
      "Ġcommunities": 2614,
      "çİ°ä»£": 2615,
      "Ġlook": 2616,
      "Ġfac": 2617,
      "çĶµå½±": 2618,
      "Ġcollect": 2619,
      "å¾ĹåĪ°": 2620,
      "hips": 2621,
      "Ġavail": 2622,
      "eren": 2623,
      "ä¸Ģèµ·": 2624,
      "çīĽ": 2625,
      "Ġposs": 2626,
      "Ġweather": 2627,
      "Ġefforts": 2628,
      "¿Ģ": 2629,
      "æĹħ": 2630,
      "oh": 2631,
      "Ġcollabor": 2632,
      "æĭ¥": 2633,
      "æĪĲåĬŁ": 2634,
      "èİ·å¾Ĺ": 2635,
      "å±ħ": 2636,
      "Ġtre": 2637,
      "Ġsources": 2638,
      "Ġstudy": 2639,
      "Ġprograms": 2640,
      "éĻĲ": 2641,
      "Ġtips": 2642,
      "Ġmarket": 2643,
      "ally": 2644,
      "å®³": 2645,
      "wards": 2646,
      "æ£Ģ": 2647,
      "ä¸Ģç¯ĩ": 2648,
      "rior": 2649,
      "Ġtop": 2650,
      "Ġend": 2651,
      "åĭ": 2652,
      "Ġlarge": 2653,
      "iciency": 2654,
      "Ġdec": 2655,
      "å®ļçļĦ": 2656,
      "icient": 2657,
      "è¿ĩç¨ĭä¸Ń": 2658,
      "lications": 2659,
      "ç¼º": 2660,
      "Ġtour": 2661,
      "Ġtogether": 2662,
      "äººå·¥": 2663,
      "Ġtools": 2664,
      "æĸ¯": 2665,
      "æ°ĳ": 2666,
      "æĬĬ": 2667,
      "ä¹ĭéĹ´çļĦ": 2668,
      "çī¹çĤ¹": 2669,
      "Ġbel": 2670,
      "ditionally": 2671,
      "åĪ©çĶ¨": 2672,
      "è¾¹": 2673,
      "éĻį": 2674,
      "ĠIf": 2675,
      "é¢Ŀ": 2676,
      "åįı": 2677,
      "å¾Ģ": 2678,
      "lish": 2679,
      "è¯ī": 2680,
      "ins": 2681,
      "å¥¶": 2682,
      "Ġeconom": 2683,
      "Ġinvest": 2684,
      "ĠDo": 2685,
      "tain": 2686,
      "åĩºçİ°": 2687,
      "çļĦå½±åĵį": 2688,
      "aterial": 2689,
      "Ġsure": 2690,
      "Ġpass": 2691,
      "çĶ»": 2692,
      "è´£": 2693,
      "ç»ĵæŀĦ": 2694,
      "æķħ": 2695,
      "æĥħæĦŁ": 2696,
      "æ¿Ģ": 2697,
      "ellig": 2698,
      "ä¼Ĺ": 2699,
      "æ¯Ķè¾ĥ": 2700,
      "tern": 2701,
      "Ġoutcomes": 2702,
      "up": 2703,
      "Ġbeaut": 2704,
      "read": 2705,
      "çĶŁæĪĲ": 2706,
      "æķ°åŃĹ": 2707,
      "Ġdem": 2708,
      "ires": 2709,
      "åı¯ä»¥éĢļè¿ĩ": 2710,
      "æĸ°çļĦ": 2711,
      "Ġdeep": 2712,
      "å¨": 2713,
      "çĭĹ": 2714,
      "åħ³æ³¨": 2715,
      "çĶŁåĳ½": 2716,
      "ä¼łç»Ł": 2717,
      "Ġstay": 2718,
      "æŃĮ": 2719,
      "åħ³éĶ®": 2720,
      "Ġplace": 2721,
      "ä¸»é¢ĺ": 2722,
      "å¾Īå¤ļ": 2723,
      "èĪĴ": 2724,
      "Ġprofessional": 2725,
      "yle": 2726,
      "æĽ²": 2727,
      "19": 2728,
      "Ġessay": 2729,
      "Ġgive": 2730,
      "ç³ĸ": 2731,
      "Ġonly": 2732,
      "æŁĲ": 2733,
      "Ġphys": 2734,
      "å¯¹è¯Ŀ": 2735,
      "Ġcontro": 2736,
      "Ġamount": 2737,
      "cept": 2738,
      "ization": 2739,
      "ç¼ĸåĨĻ": 2740,
      "åıĹåĪ°": 2741,
      "Ġalways": 2742,
      "æ¯Ķå¦Ĥ": 2743,
      "Ġprivacy": 2744,
      "au": 2745,
      "________": 2746,
      "Ġresponsible": 2747,
      "()": 2748,
      "çŃīçŃī": 2749,
      "Ġmaterial": 2750,
      "Ġonline": 2751,
      "é¼": 2752,
      "æĶ¿": 2753,
      "åĽĽ": 2754,
      "Ġenjoy": 2755,
      "åľŁ": 2756,
      "Ġsafety": 2757,
      "Ġtw": 2758,
      "Ġcommunication": 2759,
      "ä¸½": 2760,
      "æĺ¾": 2761,
      "olution": 2762,
      "erg": 2763,
      "įä½ľ": 2764,
      "Ġuser": 2765,
      "Ġemotional": 2766,
      "time": 2767,
      "é¾": 2768,
      "Ġsecurity": 2769,
      "Ġsense": 2770,
      "elines": 2771,
      "åĬ±": 2772,
      "çī©è´¨": 2773,
      "ura": 2774,
      "Ġshare": 2775,
      "Ġanalyzing": 2776,
      "ital": 2777,
      "é±": 2778,
      "irtual": 2779,
      "Ġvisit": 2780,
      "bers": 2781,
      "Ġcour": 2782,
      "Ġproble": 2783,
      "è®¾å¤ĩ": 2784,
      "atch": 2785,
      "land": 2786,
      "é±¼": 2787,
      "æĪĳä»¬éľĢè¦ģ": 2788,
      "ç¨³": 2789,
      "ibility": 2790,
      "Ġefficiency": 2791,
      "å£°": 2792,
      "èĴ": 2793,
      "æľºåĻ¨": 2794,
      "Ġclear": 2795,
      "åĪ¶å®ļ": 2796,
      "izing": 2797,
      "Ġconditions": 2798,
      "lusion": 2799,
      "Ġlow": 2800,
      "Ġlim": 2801,
      "hers": 2802,
      "Ġrisks": 2803,
      "ç¿»": 2804,
      "Ġlet": 2805,
      "åĴĸ": 2806,
      "å¿ĥçĲĨ": 2807,
      "è¿ľ": 2808,
      "print": 2809,
      "Ġchanges": 2810,
      "Ġmeas": 2811,
      "Ġimproving": 2812,
      "Ġcrit": 2813,
      "50": 2814,
      "å¸ĮæľĽ": 2815,
      "Ġaud": 2816,
      "åįĹ": 2817,
      "æĹłæ³ķ": 2818,
      "Ġnegative": 2819,
      "é¡¹çĽ®": 2820,
      "und": 2821,
      "ats": 2822,
      "Ġcompanies": 2823,
      "æī¾åĪ°": 2824,
      "Ġcontribut": 2825,
      "æŃ£ç¡®": 2826,
      "é»Ħ": 2827,
      "å±ŀ": 2828,
      "Ġunderstanding": 2829,
      "Ġmult": 2830,
      "Ġclo": 2831,
      "å¾ģ": 2832,
      "Ġprior": 2833,
      "rim": 2834,
      "äººå·¥æĻºèĥ½": 2835,
      "Ġvariety": 2836,
      "Ġtaking": 2837,
      "åĤ": 2838,
      "aster": 2839,
      "ody": 2840,
      "Ġ{": 2841,
      "çļĦéĩįè¦ģ": 2842,
      "Ġfore": 2843,
      "èµĦæºĲ": 2844,
      "è¦ģæ±Ĥ": 2845,
      "Ġfeatures": 2846,
      "èįī": 2847,
      "me": 2848,
      "èĮĥ": 2849,
      "Ġoper": 2850,
      "çº§": 2851,
      "é²ľ": 2852,
      "æĬĢå·§": 2853,
      "ĳæĪĺ": 2854,
      "ç±»åŀĭ": 2855,
      "æĿ¿": 2856,
      "è½¯": 2857,
      "ew": 2858,
      "Ġrestaur": 2859,
      "Ġwithout": 2860,
      "ructure": 2861,
      "çļĦæĺ¯": 2862,
      "çı": 2863,
      "Ġlist": 2864,
      "urate": 2865,
      "Ġbook": 2866,
      "äº²": 2867,
      "åºĹ": 2868,
      "ä¹Łæĺ¯": 2869,
      "ä»»ä½ķ": 2870,
      "Ġcam": 2871,
      "ĠBe": 2872,
      "Ġgovern": 2873,
      "Ġbehavior": 2874,
      "è®Ńç»ĥ": 2875,
      "Ġfamily": 2876,
      "æĿĤ": 2877,
      "Ġcity": 2878,
      "Ġapproach": 2879,
      "Ġaccurate": 2880,
      "Ġsom": 2881,
      "Ġel": 2882,
      "èĪŀ": 2883,
      "èŀ": 2884,
      "åŁºæľ¬": 2885,
      "Ġdise": 2886,
      "Ġencoura": 2887,
      "ĠWhat": 2888,
      "åĥ": 2889,
      "è¯¦": 2890,
      "¦Ĥ": 2891,
      "å·¥åħ·": 2892,
      "åķ¡": 2893,
      "Ġstill": 2894,
      "chool": 2895,
      "æĦŁåĪ°": 2896,
      "çĶŁçī©": 2897,
      "åĴĸåķ¡": 2898,
      "åĩĨå¤ĩ": 2899,
      "Ġwaste": 2900,
      "Ġevents": 2901,
      "æķĻèĤ²": 2902,
      "Ġ8": 2903,
      "Ġmust": 2904,
      "ied": 2905,
      "asing": 2906,
      "å½¢æĪĲ": 2907,
      "Ġproducts": 2908,
      "åħ¸": 2909,
      "è®²": 2910,
      "fter": 2911,
      "å·®": 2912,
      "less": 2913,
      "Ġcro": 2914,
      "Ġfinan": 2915,
      "åıįåºĶ": 2916,
      "åĪĽéĢł": 2917,
      "Ġguidelines": 2918,
      "åĪ¤": 2919,
      "ä½ľåĵģ": 2920,
      "è¡¨ç¤º": 2921,
      "å¼Ĥ": 2922,
      "Ġknown": 2923,
      "Ġtest": 2924,
      "è¯¯": 2925,
      "ope": 2926,
      "Ġusers": 2927,
      "AI": 2928,
      "å¾·": 2929,
      "new": 2930,
      "è¿½": 2931,
      "iques": 2932,
      "æ¨¡åŀĭ": 2933,
      "åĬĽåĴĮ": 2934,
      "Ġhistory": 2935,
      "ĠAl": 2936,
      "æĬķèµĦ": 2937,
      "å°Ŀè¯ķ": 2938,
      "ank": 2939,
      "Ġhome": 2940,
      "éĴŁ": 2941,
      "ä¸°": 2942,
      "èĪĴéĢĤ": 2943,
      "Ġincrease": 2944,
      "Ġhab": 2945,
      "åĪ»": 2946,
      "è¾ĵåĩº": 2947,
      "Ġleading": 2948,
      "Ġ7": 2949,
      "é£İéĻ©": 2950,
      "Ġperformance": 2951,
      "Ġhapp": 2952,
      "åŃ£": 2953,
      "Ġstand": 2954,
      "ty": 2955,
      "ç¦ı": 2956,
      "Ġcustomers": 2957,
      "åįİ": 2958,
      "Ġbelie": 2959,
      "Ġcompany": 2960,
      "å½ķ": 2961,
      "é£Łçī©": 2962,
      "ĠUn": 2963,
      "Ġsumm": 2964,
      "rent": 2965,
      "ĠCon": 2966,
      "éĢĤéĩı": 2967,
      "anced": 2968,
      "Ġi": 2969,
      "Ġlight": 2970,
      "Ġanalysis": 2971,
      "å°Ĭ": 2972,
      "ĠUse": 2973,
      "ouse": 2974,
      "ted": 2975,
      "Ġcharact": 2976,
      "Ġ#": 2977,
      "to": 2978,
      "ç»ľ": 2979,
      "ä¸įæĺ¯": 2980,
      "Ġdeveloping": 2981,
      "åŁ¹": 2982,
      "Ġstrategies": 2983,
      "Ġmight": 2984,
      "çŁŃ": 2985,
      "çļĦæİ": 2986,
      "Ġfirst": 2987,
      "èĥĮ": 2988,
      "çĮ«": 2989,
      "Ġincludes": 2990,
      "åĽŃ": 2991,
      "Ġdiagn": 2992,
      "Ġgrowth": 2993,
      "ä¸ĵä¸ļ": 2994,
      "Ġdoes": 2995,
      "12": 2996,
      "ç»¿": 2997,
      "Ġkeep": 2998,
      "è¯¦ç»Ĩ": 2999,
      "åĥı": 3000,
      "åıĳçĶŁ": 3001,
      "fact": 3002,
      "åı¯ä»¥åľ¨": 3003,
      "ç«Ļ": 3004,
      "æĭī": 3005,
      "æµİ": 3006,
      "Ġchatbots": 3007,
      "Ġbreak": 3008,
      "è¡¡": 3009,
      "çŁ³": 3010,
      "æĮģç»Ń": 3011,
      "life": 3012,
      "Ġ10": 3013,
      "æ´Ĺ": 3014,
      "ĠAdditionally": 3015,
      "å£«": 3016,
      "ember": 3017,
      "Ġgoals": 3018,
      "å¾®": 3019,
      "Ġview": 3020,
      "Â·": 3021,
      "ove": 3022,
      "åŁºç¡": 3023,
      "Ġoptimize": 3024,
      "Ġtem": 3025,
      "Ġdown": 3026,
      "åŁºç¡Ģ": 3027,
      "è¶ħ": 3028,
      "ercis": 3029,
      "Ġless": 3030,
      "ees": 3031,
      "æĿĥ": 3032,
      "Ġkey": 3033,
      "Ġworks": 3034,
      "è®¨": 3035,
      "åı¥åŃĲ": 3036,
      "Ġrobot": 3037,
      "uss": 3038,
      "åħ¨çĲĥ": 3039,
      "ç»ıæµİ": 3040,
      "æīįèĥ½": 3041,
      "egr": 3042,
      "ä»ĸä»¬çļĦ": 3043,
      "äºĶ": 3044,
      "èµ·æĿ¥": 3045,
      "çĵ": 3046,
      "Ġfactors": 3047,
      "Ġcultural": 3048,
      "æľ¨": 3049,
      "Ġworking": 3050,
      "ä¼¼": 3051,
      "èĲ½": 3052,
      "éĢŁåº¦": 3053,
      "ä½ı": 3054,
      "Ġeffects": 3055,
      "å©ļ": 3056,
      "br": 3057,
      "åİħ": 3058,
      "rain": 3059,
      "\")": 3060,
      "åŃ¦çĶŁ": 3061,
      "\",": 3062,
      "Ġpar": 3063,
      "atform": 3064,
      "Ġensuring": 3065,
      "çĶ±äºİ": 3066,
      "Ġmuch": 3067,
      "Ġwords": 3068,
      "Ġmar": 3069,
      "ç»ıéªĮ": 3070,
      "ä¸ºäºĨ": 3071,
      "åĲĪä½ľ": 3072,
      "ven": 3073,
      "Ġ/": 3074,
      "Ġfinancial": 3075,
      "work": 3076,
      "ories": 3077,
      "æ²»": 3078,
      "Ġtechniques": 3079,
      "æĭ¥æľī": 3080,
      "rap": 3081,
      "å°Ķ": 3082,
      "Ġest": 3083,
      "Ġavailable": 3084,
      "Ġlit": 3085,
      "æ¹": 3086,
      "Ġefficient": 3087,
      "els": 3088,
      "over": 3089,
      "Ġland": 3090,
      "Ġarea": 3091,
      "Ġintellig": 3092,
      "Ġpref": 3093,
      "ature": 3094,
      "çŁ¥è¯Ĩ": 3095,
      "æĵįä½ľ": 3096,
      "å¾ħ": 3097,
      "igate": 3098,
      "çļĦæĶ": 3099,
      "Ġmean": 3100,
      "bo": 3101,
      "Ġcontrol": 3102,
      "éĩĩçĶ¨": 3103,
      "ricult": 3104,
      "Ġprogramm": 3105,
      "Ġtowards": 3106,
      "thing": 3107,
      "ä¸įè¦ģ": 3108,
      "Ġthough": 3109,
      "å½©": 3110,
      "Ġcertain": 3111,
      "Ġwild": 3112,
      "ä»Ĭ": 3113,
      "Ġconservation": 3114,
      "çŁ¥éģĵ": 3115,
      "Ġreally": 3116,
      "çļĦåľ°": 3117,
      "io": 3118,
      "é¥°": 3119,
      "Ġful": 3120,
      "çİ¯ä¿Ŀ": 3121,
      "Ġexplore": 3122,
      "çļĦæ¸": 3123,
      "Ġdiverse": 3124,
      "åĬłå¼º": 3125,
      "çļ®": 3126,
      "Ġemotions": 3127,
      "Ġavoid": 3128,
      "'ll": 3129,
      "çļĦæī": 3130,
      "åį¡": 3131,
      "Ġplatform": 3132,
      "ances": 3133,
      "Ġsitu": 3134,
      "ä»ĺ": 3135,
      "ä½įç½®": 3136,
      "oring": 3137,
      "çĽĲ": 3138,
      "ä¸ĩ": 3139,
      "Ġdev": 3140,
      "nov": 3141,
      "ash": 3142,
      "Ġtwo": 3143,
      "å®ł": 3144,
      "bon": 3145,
      "èµ°": 3146,
      "åĪĹè¡¨": 3147,
      "Ġcy": 3148,
      "èįĲ": 3149,
      "ĠSome": 3150,
      "Ġexplain": 3151,
      "Ġaware": 3152,
      "ç¤¾äº¤": 3153,
      "day": 3154,
      "åıĮ": 3155,
      "æ²ŁéĢļ": 3156,
      "æ°§": 3157,
      "å¼Ģåıĳ": 3158,
      "åħ¬åı¸çļĦ": 3159,
      "Ġair": 3160,
      "åĩ»": 3161,
      "aring": 3162,
      "éĥ½æĺ¯": 3163,
      "Ġlevels": 3164,
      "ods": 3165,
      "Ġsteps": 3166,
      "Ġcap": 3167,
      "æ´ŀ": 3168,
      "é©¬": 3169,
      "Ġreturn": 3170,
      "Ġmet": 3171,
      "çĶŁæĢģ": 3172,
      "ä¸°å¯Į": 3173,
      "æŁĵ": 3174,
      "æīĢä»¥": 3175,
      "é¡»": 3176,
      "Ġer": 3177,
      "Ġfra": 3178,
      "30": 3179,
      "èĵ": 3180,
      "âĢĶ": 3181,
      "Ġå½ĵ": 3182,
      "ah": 3183,
      "ä¿ĥ": 3184,
      "Ġlikely": 3185,
      "ĠĠĠĠĠĠĠĠĠĠĠĠĠĠĠĠ": 3186,
      "åĪĿ": 3187,
      "Ġcreating": 3188,
      "Ġfarm": 3189,
      "Ġbal": 3190,
      "Ġlives": 3191,
      "å®ĥçļĦ": 3192,
      "Ġability": 3193,
      "ä¸ĬçļĦ": 3194,
      "Ġsentence": 3195,
      "åĤ¨": 3196,
      "Ġrout": 3197,
      "Ġprovides": 3198,
      "Ġagain": 3199,
      "å®łçī©": 3200,
      "éĢĲ": 3201,
      "Ġyears": 3202,
      "èŀį": 3203,
      "Ġphysical": 3204,
      "Python": 3205,
      "ĠEx": 3206,
      "iting": 3207,
      "è°ĥæķ´": 3208,
      "ç½ĳç»ľ": 3209,
      "æħ¢": 3210,
      "ç©ºéĹ´": 3211,
      "åĽ°": 3212,
      "è±Ĩ": 3213,
      "æĽ´å¤ļçļĦ": 3214,
      "ĠAr": 3215,
      "Ġmaintain": 3216,
      "å®ŀéĻħ": 3217,
      "Ġtravel": 3218,
      "Ġsat": 3219,
      "pro": 3220,
      "çĶµåŃĲ": 3221,
      "æ±½": 3222,
      "ex": 3223,
      "åģĩ": 3224,
      "æĲŃ": 3225,
      "éļıçĿĢ": 3226,
      "è¿ĺæľī": 3227,
      "ç¤¼": 3228,
      "ale": 3229,
      "Ġconsum": 3230,
      "ĊĠ": 3231,
      "ncy": 3232,
      "Ġquestions": 3233,
      "fort": 3234,
      "making": 3235,
      "Ġdesc": 3236,
      "15": 3237,
      "Ġinvolves": 3238,
      "Ġstress": 3239,
      "åŃĹç¬¦": 3240,
      "here": 3241,
      "Ġimpacts": 3242,
      "Ġexercis": 3243,
      "åĿļ": 3244,
      "ledge": 3245,
      "ç§ĳæĬĢ": 3246,
      "oci": 3247,
      "Ġeffectively": 3248,
      "æ¶Īè´¹": 3249,
      "Ġconclusion": 3250,
      "éĺħ": 3251,
      "Ġstre": 3252,
      "issions": 3253,
      "æ·»": 3254,
      "It": 3255,
      "éĿĻ": 3256,
      "Ġvirtual": 3257,
      "è¡£": 3258,
      "Ġachieve": 3259,
      "ource": 3260,
      "è¿ŀ": 3261,
      "acks": 3262,
      "è¡¨æł¼": 3263,
      "Ġimportance": 3264,
      "èĩªæĪĳ": 3265,
      "These": 3266,
      "num": 3267,
      "çļĦæł": 3268,
      "Ġrelationships": 3269,
      "Ġworkers": 3270,
      "gical": 3271,
      "orpor": 3272,
      "erson": 3273,
      "åĳ¢": 3274,
      "nds": 3275,
      "æİ¨èįĲ": 3276,
      "ohn": 3277,
      "å¿ħé¡»": 3278,
      "å®¹æĺĵ": 3279,
      "ĠGo": 3280,
      "Ġtell": 3281,
      "ĠRes": 3282,
      "onom": 3283,
      "Ġbec": 3284,
      "æ³Ľ": 3285,
      "pos": 3286,
      "Ġmove": 3287,
      "Ġstory": 3288,
      "æŃ¢": 3289,
      "Ġpriorit": 3290,
      "Ġindustries": 3291,
      "èľ": 3292,
      "Ġpossible": 3293,
      "ĠMan": 3294,
      "Ġexpress": 3295,
      "abilities": 3296,
      "Ġintegr": 3297,
      "ä»£è¡¨": 3298,
      "Ġrespond": 3299,
      "åĪĨéĴŁ": 3300,
      "æľºä¼ļ": 3301,
      "Ġthings": 3302,
      "äº¤æµģ": 3303,
      "Ġmeth": 3304,
      "urther": 3305,
      "Ġwide": 3306,
      "èĳĹ": 3307,
      "æĪĳçļĦ": 3308,
      "ĸçķ¥": 3309,
      "ides": 3310,
      "ething": 3311,
      "ĠWhile": 3312,
      "pan": 3313,
      "çŃĸçķ¥": 3314,
      "Ġcent": 3315,
      "Ġplease": 3316,
      "ology": 3317,
      "uracy": 3318,
      "å¾ª": 3319,
      "ward": 3320,
      "nce": 3321,
      "Ġthen": 3322,
      "çªģ": 3323,
      "å¥ĩ": 3324,
      "Ġblo": 3325,
      "ai": 3326,
      "æŀĹ": 3327,
      "ç®Ĺæ³ķ": 3328,
      "ç»¼": 3329,
      "Ġprint": 3330,
      "aces": 3331,
      "lu": 3332,
      "ªæĸ½": 3333,
      "pre": 3334,
      "çļĦæĦı": 3335,
      "Ġsol": 3336,
      "Ġoverall": 3337,
      "hold": 3338,
      "Ġes": 3339,
      "çļĦä¸Ģ": 3340,
      "éģĩ": 3341,
      "Ġpopul": 3342,
      "å°ıè¯´": 3343,
      "æ³¢": 3344,
      "åįģ": 3345,
      "ä¹Łåı¯ä»¥": 3346,
      "é£Łåĵģ": 3347,
      "Ġcontent": 3348,
      "å°Ħ": 3349,
      "Ġrequires": 3350,
      "æ£ĢæŁ¥": 3351,
      "ĊĠĠĠĠĠĠĠĠĠĠĠ": 3352,
      "Ġgroups": 3353,
      "Ġfair": 3354,
      "Ġbl": 3355,
      "å®ŀéªĮ": 3356,
      "æĮīçħ§": 3357,
      "osp": 3358,
      "str": 3359,
      "ä¸įèĥ½": 3360,
      "Ġharm": 3361,
      "Ġprodu": 3362,
      "çļĦæĬĢ": 3363,
      "çĩ": 3364,
      "tle": 3365,
      "Ġanimals": 3366,
      "è§Ĵèī²": 3367,
      "lev": 3368,
      "æ¸Ĳ": 3369,
      "å¤įæĿĤ": 3370,
      "Ġdepend": 3371,
      "æĮĳæĪĺ": 3372,
      "åĮħåĲ«": 3373,
      "Ġhelps": 3374,
      "Ġopen": 3375,
      "Ġnet": 3376,
      "ĠĠĠĠĠ": 3377,
      "Ġstrong": 3378,
      "Ġjour": 3379,
      "å¹¿æ³Ľ": 3380,
      "æķ´ä¸ª": 3381,
      "Ġelect": 3382,
      "Ġresponse": 3383,
      "åįķè¯į": 3384,
      "æľĭ": 3385,
      "Ġ<": 3386,
      "åĮĸåŃ¦": 3387,
      "éĴĪ": 3388,
      "Ġquick": 3389,
      "ually": 3390,
      "Ġsomething": 3391,
      "Ġtrack": 3392,
      "åº¦åĴĮ": 3393,
      "erences": 3394,
      "æłĳ": 3395,
      "Ġaccuracy": 3396,
      "Ġexc": 3397,
      "é£ŀ": 3398,
      "Ġfield": 3399,
      "å¯»æī¾": 3400,
      "éħ¸": 3401,
      "Ġhope": 3402,
      "çĳ": 3403,
      "Ġinnov": 3404,
      "ç»ª": 3405,
      "alk": 3406,
      "Ġtypes": 3407,
      "Ġdid": 3408,
      "åĬª": 3409,
      "Ġcall": 3410,
      "è¯Ĺ": 3411,
      "Ġearly": 3412,
      "ĠOne": 3413,
      "app": 3414,
      "Ġcommon": 3415,
      "æľĢç»Ī": 3416,
      "Ġcheck": 3417,
      "Ġsym": 3418,
      "çĤĴ": 3419,
      "æĬĢèĥ½": 3420,
      "Ġenh": 3421,
      "Ġagricult": 3422,
      "Ġimm": 3423,
      "ç»ĩ": 3424,
      "æ»¡è¶³": 3425,
      "Ġschool": 3426,
      "bal": 3427,
      "Ġfollowing": 3428,
      "based": 3429,
      "Ġwebs": 3430,
      "Ġculture": 3431,
      "ĠCom": 3432,
      "way": 3433,
      "ä¸Ģå®ļ": 3434,
      "åķĨåĵģ": 3435,
      "ude": 3436,
      "çļĦåıĳå±ķ": 3437,
      "çĶŁäº§": 3438,
      "osystem": 3439,
      "Ġplant": 3440,
      "åı¶": 3441,
      "åĲĥ": 3442,
      "ä»ĸçļĦ": 3443,
      "der": 3444,
      "è¯¢": 3445,
      "å®¶åħ·": 3446,
      "Ġfree": 3447,
      "ç§»": 3448,
      "æİĮ": 3449,
      "Ġbody": 3450,
      "Ġpresent": 3451,
      "Ġparticularly": 3452,
      "Ġchildren": 3453,
      "Ġstudent": 3454,
      ").": 3455,
      "çī¹å¾ģ": 3456,
      "èĶ": 3457,
      "éĺħè¯»": 3458,
      "æķĪçİĩ": 3459,
      "Ġprogram": 3460,
      "éħ±": 3461,
      "åıĺå¾Ĺ": 3462,
      "ix": 3463,
      "Ġcome": 3464,
      "çļĦæ²": 3465,
      "ĠTe": 3466,
      "ĠTo": 3467,
      "åħ±åĲĮ": 3468,
      "Ġemployees": 3469,
      "è¯´æĺİ": 3470,
      "Ġheart": 3471,
      "Ġmot": 3472,
      "æľĭåıĭ": 3473,
      "eric": 3474,
      "è¯ĳ": 3475,
      "Ġcurrent": 3476,
      "æĪĲæľ¬": 3477,
      "Ġtoo": 3478,
      "çİ©å®¶": 3479,
      "åĪĽæĸ°": 3480,
      "Ġecosystem": 3481,
      "å¸¸è§ģ": 3482,
      "ä¸ĢæŃ¥": 3483,
      "Ġpres": 3484,
      "Ġmulti": 3485,
      "åĳĬè¯ī": 3486,
      "ä¸¥": 3487,
      "Ġmit": 3488,
      "Ġaction": 3489,
      "çĨŁ": 3490,
      "Ġhabit": 3491,
      "åı£æĦŁ": 3492,
      "ç®±": 3493,
      "Ġuses": 3494,
      "å¢ŀå¼º": 3495,
      "ç»Ļåĩº": 3496,
      "Ġ9": 3497,
      "Ġdep": 3498,
      "Ġeconomic": 3499,
      "æĢ§çļĦ": 3500,
      "18": 3501,
      "åĨ°": 3502,
      "Ġhelped": 3503,
      "åĲ¸å¼ķ": 3504,
      "çİĭ": 3505,
      "Ġdiagnos": 3506,
      "åł": 3507,
      "èģĶç³»": 3508,
      "ç¾¤": 3509,
      "ç»ĥä¹ł": 3510,
      "æĪĲéķ¿": 3511,
      "Ġpoint": 3512,
      "å®ļæľŁ": 3513,
      "åĳ¼": 3514,
      "èį¯": 3515,
      "æĿ¯": 3516,
      "æ¤Ĵ": 3517,
      "æķĪæŀľ": 3518,
      "Ġspecial": 3519,
      "æ··": 3520,
      "åĩłä¸ª": 3521,
      "ause": 3522,
      "éĨ": 3523,
      "æ¯ĶèµĽ": 3524,
      "è·Ŀ": 3525,
      "What": 3526,
      "Ġtimes": 3527,
      "icles": 3528,
      "Ġ*": 3529,
      "ç´§": 3530,
      "å¦Ĥæŀľä½ł": 3531,
      "çĭ¬çī¹": 3532,
      "çģµ": 3533,
      "ç¨İ": 3534,
      "Ġcarbon": 3535,
      "Ġbias": 3536,
      "åĬ©äºİ": 3537,
      "Ġconst": 3538,
      "èĩªçĶ±": 3539,
      "æĿ¥è¯´": 3540,
      "å°±æĺ¯": 3541,
      "åį°": 3542,
      "Ġmeet": 3543,
      "è§ĦåĪĴ": 3544,
      "çļĦç¾": 3545,
      "èĲ¥åħ»": 3546,
      "ators": 3547,
      "ç¨³å®ļ": 3548,
      "ode": 3549,
      "çħ®": 3550,
      "Ġassoci": 3551,
      "å¿Ĺ": 3552,
      "è¡ĮæĺŁ": 3553,
      "æĿİ": 3554,
      "Ġreview": 3555,
      "åĩĢ": 3556,
      "ĠRo": 3557,
      "Ġknowledge": 3558,
      "ä»¥ä¾¿": 3559,
      "æµĭè¯ķ": 3560,
      "åĲĪéĢĤ": 3561,
      "sc": 3562,
      "å½¢å¼ı": 3563,
      "Ġfriends": 3564,
      "Ġnature": 3565,
      "Ġcritical": 3566,
      "æ´ĭ": 3567,
      "Ġafter": 3568,
      "erve": 3569,
      "Ġrece": 3570,
      "çļĦæŃ": 3571,
      "æ±½è½¦": 3572,
      "çķĮ": 3573,
      "Ġloss": 3574,
      "Ġapplications": 3575,
      "å¤ļç§į": 3576,
      "éĶħ": 3577,
      "ä¸²": 3578,
      "Ġinsp": 3579,
      "---": 3580,
      "ĠSh": 3581,
      "Ġvol": 3582,
      "lut": 3583,
      "oks": 3584,
      "sequ": 3585,
      "Ġbir": 3586,
      "åĲĪçĲĨ": 3587,
      "Ġnecess": 3588,
      "æĪĳæĥ³": 3589,
      "çŃīæĸ¹éĿ¢": 3590,
      "é¼ĵ": 3591,
      "Ġsoft": 3592,
      "Ġlive": 3593,
      "å°ıæĺİ": 3594,
      "ĠInd": 3595,
      "Ġbring": 3596,
      "æĺ¯æĮĩ": 3597,
      "Ġsoil": 3598,
      "ilar": 3599,
      "ä¸ľ": 3600,
      "æĿ¡ä»¶": 3601,
      "Ġtri": 3602,
      "äº®": 3603,
      "Ġmom": 3604,
      "æı¡": 3605,
      "ä¼°": 3606,
      "ŀäºī": 3607,
      "çĽĳ": 3608,
      "èĤ¤": 3609,
      "è´¢åĬ¡": 3610,
      "æ·»åĬł": 3611,
      "é¥®é£Ł": 3612,
      "Ġallowing": 3613,
      "åºķ": 3614,
      "Ġright": 3615,
      "Ġexpert": 3616,
      "Ġsupp": 3617,
      "Ġinit": 3618,
      "çļĦæµ": 3619,
      "arget": 3620,
      "Ġexpect": 3621,
      "Ġ19": 3622,
      "Ġmeasures": 3623,
      "olutions": 3624,
      "just": 3625,
      "arc": 3626,
      "å°ļ": 3627,
      "Ġpractice": 3628,
      "æľīåĬ©äºİ": 3629,
      "å¤§éĩı": 3630,
      "',": 3631,
      "iment": 3632,
      "Ġcontinue": 3633,
      "Ġdiscuss": 3634,
      "100": 3635,
      "éļľ": 3636,
      "çļĦæĦŁ": 3637,
      "Ġreflect": 3638,
      "itation": 3639,
      "åį«": 3640,
      "äºĨä¸Ģ": 3641,
      "ney": 3642,
      "ĠLe": 3643,
      "ised": 3644,
      "è¶ĭ": 3645,
      "äºĨä¸Ģä¸ª": 3646,
      "Ġincreasing": 3647,
      "çļĦæĮ": 3648,
      "Ġstru": 3649,
      "æĢ»ç»ĵ": 3650,
      "ely": 3651,
      "å®ĩ": 3652,
      "Ġauthor": 3653,
      "è¡¨éĿ¢": 3654,
      "Ġx": 3655,
      "æķħäºĭ": 3656,
      "emic": 3657,
      "Ġrepresent": 3658,
      "ger": 3659,
      "Ġincreased": 3660,
      "ones": 3661,
      "ains": 3662,
      "Ġtrained": 3663,
      "Ġfish": 3664,
      "Ġstate": 3665,
      "åĨ·": 3666,
      "çĶŁéķ¿": 3667,
      "Ġrenew": 3668,
      "ording": 3669,
      "åĮĹ": 3670,
      "æİªæĸ½": 3671,
      "å¹³è¡¡": 3672,
      "Ġsuccessful": 3673,
      "ä¸ĭéĿ¢": 3674,
      "Ġactivity": 3675,
      "èĮ¶": 3676,
      "éĢĤåºĶ": 3677,
      "èĦĳ": 3678,
      "æİ¢ç´¢": 3679,
      "ffic": 3680,
      "ç»ĦæĪĲ": 3681,
      "atives": 3682,
      "äºļ": 3683,
      "Ġscen": 3684,
      "æ²Ļ": 3685,
      "gress": 3686,
      "ä½¿å¾Ĺ": 3687,
      "æī¿": 3688,
      "Ġdiscrim": 3689,
      "Ġassistants": 3690,
      "Ġexist": 3691,
      "çķĻ": 3692,
      "Ġspace": 3693,
      "æľĢè¿ĳ": 3694,
      "Ġideas": 3695,
      "éĩĩåıĸ": 3696,
      "light": 3697,
      "æ³¨éĩį": 3698,
      "çļĦæĹ¶éĹ´": 3699,
      "è¿İ": 3700,
      "Ġcomb": 3701,
      "éĢĤå½ĵ": 3702,
      "Ġyourself": 3703,
      "rite": 3704,
      "ason": 3705,
      "åĮĢ": 3706,
      "åı¯ä»¥ä½¿çĶ¨": 3707,
      "åħħæ»¡": 3708,
      "Ġvalues": 3709,
      "æ½": 3710,
      "Ġbiases": 3711,
      "ä¿ĥè¿Ľ": 3712,
      "åľºæĻ¯": 3713,
      "ross": 3714,
      "åį³åı¯": 3715,
      "Ġcru": 3716,
      "Ġnumber": 3717,
      "Ġtype": 3718,
      "rast": 3719,
      "åĩĨç¡®": 3720,
      "This": 3721,
      "Ġpast": 3722,
      "çģ¯": 3723,
      "å®ļä¹ī": 3724,
      "Ġsolutions": 3725,
      "Ġter": 3726,
      "ä¿Ŀè¯ģ": 3727,
      "èĶ¬": 3728,
      "å¹¸": 3729,
      "åī§": 3730,
      "åħ´è¶£": 3731,
      "åª": 3732,
      "ention": 3733,
      "avor": 3734,
      "Ġscient": 3735,
      "åĬªåĬĽ": 3736,
      "Ġproviders": 3737,
      "Ġpolicies": 3738,
      "alu": 3739,
      "ĠIm": 3740,
      "Ġallows": 3741,
      "Ġintelligence": 3742,
      "çļĦæĸ¹æ³ķ": 3743,
      "è¿Ļæĺ¯": 3744,
      "Ġ`": 3745,
      "Ġemissions": 3746,
      "Ġå°Ĩ": 3747,
      "Ġmeaning": 3748,
      "Ġstyle": 3749,
      "åİŁåĽł": 3750,
      "Ġstrugg": 3751,
      "çļĦç¾İ": 3752,
      "iful": 3753,
      "dition": 3754,
      "éĥ½æľī": 3755,
      "ç©ºæ°Ķ": 3756,
      "å®ĥä»¬çļĦ": 3757,
      "ä¼ĺåĮĸ": 3758,
      "Ġinflu": 3759,
      "åŁºäºİ": 3760,
      "Ġdetails": 3761,
      "Ġtransparency": 3762,
      "Ġmess": 3763,
      "ĠCl": 3764,
      "Ġgame": 3765,
      "pri": 3766,
      "è¶ĭåĬ¿": 3767,
      "å½Ĵ": 3768,
      "ç¿»è¯ĳ": 3769,
      "æķ£": 3770,
      "By": 3771,
      "éŃ": 3772,
      "ĠAmeric": 3773,
      "Ġproduction": 3774,
      "Ġincorpor": 3775,
      "æĻļ": 3776,
      "Ġinvolve": 3777,
      "Ġhot": 3778,
      "æĻ®": 3779,
      "by": 3780,
      "Ġflow": 3781,
      "Ġemerg": 3782,
      "åº§": 3783,
      "Ġidea": 3784,
      "åİĭåĬĽ": 3785,
      "éĿĴ": 3786,
      "oms": 3787,
      "èģĮä¸ļ": 3788,
      "Ġreport": 3789,
      "Ġpap": 3790,
      "Ġtherap": 3791,
      "Ġsal": 3792,
      "åıĤä¸İ": 3793,
      "æĸĩåŃ¦": 3794,
      "æĲŃéħį": 3795,
      "oot": 3796,
      "),": 3797,
      "Ġcr": 3798,
      "Ġprocesses": 3799,
      "gin": 3800,
      "å¹³åı°": 3801,
      "å¯Ł": 3802,
      "Ġpromoting": 3803,
      "æļĸ": 3804,
      "akehold": 3805,
      "ç»§": 3806,
      "iver": 3807,
      "æ¦Ĥ": 3808,
      "Ġmodels": 3809,
      "Ġdra": 3810,
      "èĸ": 3811,
      "Ġgroup": 3812,
      "è¶³å¤Ł": 3813,
      "Ġgreen": 3814,
      "Ġhealthy": 3815,
      "Ġcomfort": 3816,
      "Ġadditional": 3817,
      "ä¸Ģæ¬¡": 3818,
      "é¤Ĳåİħ": 3819,
      "Ġmaterials": 3820,
      "Ġmanage": 3821,
      "çļĦæ¯": 3822,
      "ä¼¤": 3823,
      "åıĬæĹ¶": 3824,
      "Ġglo": 3825,
      "Ġstat": 3826,
      "å¿«éĢŁ": 3827,
      "Ġmonitoring": 3828,
      "aily": 3829,
      "rand": 3830,
      "oice": 3831,
      "resh": 3832,
      "ç»Ħç»ĩ": 3833,
      "Ġunder": 3834,
      "Ġnecessary": 3835,
      "Ġhelpful": 3836,
      "ĠCol": 3837,
      "é»ĳæ´ŀ": 3838,
      "åģļåĩº": 3839,
      "Ġcourse": 3840,
      "Ġmat": 3841,
      "Ġleg": 3842,
      "Ġface": 3843,
      "ä»¤": 3844,
      "èī¯å¥½çļĦ": 3845,
      "ock": 3846,
      "åĮ»çĸĹ": 3847,
      "çĽĸ": 3848,
      "idence": 3849,
      "Ġassociated": 3850,
      "Ġprogress": 3851,
      "åľĨ": 3852,
      "Ġeveryone": 3853,
      "ç¼ĵ": 3854,
      "ĠEng": 3855,
      "word": 3856,
      "èĵĿ": 3857,
      "å¤©æ°Ķ": 3858,
      "Ġactions": 3859,
      "ems": 3860,
      "ĠPl": 3861,
      "å®Ļ": 3862,
      "ush": 3863,
      "é¡¾": 3864,
      "Ġcosts": 3865,
      "ator": 3866,
      "ç©¿": 3867,
      "Ġamounts": 3868,
      "èĶ¬èıľ": 3869,
      "..": 3870,
      "Ġmanner": 3871,
      "Ġconsequ": 3872,
      "æ°ĶåĢĻ": 3873,
      "Ġinsights": 3874,
      "being": 3875,
      "atory": 3876,
      "ener": 3877,
      "lex": 3878,
      "Ġmeans": 3879,
      "Ġcollaboration": 3880,
      "Ġperspect": 3881,
      "orm": 3882,
      "priate": 3883,
      "å°Ĭéĩį": 3884,
      "Ġtarget": 3885,
      "è®°å½ķ": 3886,
      "åĢĴ": 3887,
      "Ġrenewable": 3888,
      "æĦ¿": 3889,
      "èĥ½æºĲ": 3890,
      "Ġinput": 3891,
      "å®ĩå®Ļ": 3892,
      "ape": 3893,
      "Ġadjust": 3894,
      "eries": 3895,
      "Ġdire": 3896,
      "ä¾Ŀ": 3897,
      "ustr": 3898,
      "fect": 3899,
      "Ġbeautiful": 3900,
      "Ġdue": 3901,
      "reci": 3902,
      "çĮ®": 3903,
      "èĥĮæĻ¯": 3904,
      "èĤ¡": 3905,
      "Ġdam": 3906,
      "ik": 3907,
      "Ġadvanced": 3908,
      "çĽ¸å¯¹": 3909,
      "åĲįç§°": 3910,
      "Ġshort": 3911,
      "Ġobject": 3912,
      "è¿ĻéĩĮ": 3913,
      "éĢłæĪĲ": 3914,
      "èĲ¥éĶĢ": 3915,
      "çļĦæĥħæĦŁ": 3916,
      "ç¥¨": 3917,
      "Ġcountries": 3918,
      "ining": 3919,
      "istic": 3920,
      "Ġplans": 3921,
      "è´£ä»»": 3922,
      "Ġstakehold": 3923,
      "the": 3924,
      "Ġassess": 3925,
      "æĢĿèĢĥ": 3926,
      "ech": 3927,
      "æĪĲåĳĺ": 3928,
      "21": 3929,
      "Ġdaily": 3930,
      "Ġcomput": 3931,
      "çļĦæĥħåĨµ": 3932,
      "æıĲåĩº": 3933,
      "ĠâĢľ": 3934,
      "åªĴ": 3935,
      "ä¸Ńå¿ĥ": 3936,
      "ished": 3937,
      "ĠSe": 3938,
      "onomous": 3939,
      "ern": 3940,
      "ç»´æĬ¤": 3941,
      "ames": 3942,
      "Ġprioritize": 3943,
      "çº¸": 3944,
      "èĤ¥": 3945,
      "Ġtemper": 3946,
      "æ¸ħæ´ģ": 3947,
      "use": 3948,
      "æ±¡": 3949,
      "Ġminim": 3950,
      "æĺ¯åľ¨": 3951,
      "å¤§å°ı": 3952,
      "åĵªäºĽ": 3953,
      "Ġappreci": 3954,
      "reng": 3955,
      "Ġregulations": 3956,
      "ĠZ": 3957,
      "éĶĻè¯¯": 3958,
      "rans": 3959,
      "èĢĮä¸Ķ": 3960,
      "èĪ¬": 3961,
      "èĳ±": 3962,
      "èĨ": 3963,
      "æ°´å¹³": 3964,
      "è´Ńçī©": 3965,
      "åŃĹç¬¦ä¸²": 3966,
      "å¯¹æĸ¹": 3967,
      "Ġhim": 3968,
      "Ġconsequences": 3969,
      "å·´": 3970,
      "é¼ĵåĬ±": 3971,
      "Ġfil": 3972,
      "äººåĳĺ": 3973,
      "è·Ŀç¦»": 3974,
      "ĠWhen": 3975,
      "çļĦæ°´": 3976,
      "çī©çĲĨ": 3977,
      "åĲĮæĹ¶ä¹Ł": 3978,
      "åľ¨è¿Ļä¸ª": 3979,
      "åħ¶æ¬¡": 3980,
      ",\"": 3981,
      "æ¶²": 3982,
      "çĶ·": 3983,
      "ival": 3984,
      "åı¯ä»¥è®©": 3985,
      "æĥ¯": 3986,
      "Ġadvance": 3987,
      "Ġveh": 3988,
      "å¦ĤæŀľæĤ¨": 3989,
      "Ġestab": 3990,
      "ript": 3991,
      "ç«¯": 3992,
      "ä¸įä¼ļ": 3993,
      "Ġtransparent": 3994,
      "æķ°éĩı": 3995,
      "çĽĺ": 3996,
      "Ġspeak": 3997,
      "Ġpark": 3998,
      "Ġstakeholders": 3999,
      "éº": 4000,
      "Ġevent": 4001,
      "çļĦæķ°æį®": 4002,
      "èĩªåĬ¨": 4003,
      "ç»ĨèĬĤ": 4004,
      "è¯Ħä¼°": 4005,
      "æ¶¦": 4006,
      "Ġpreferences": 4007,
      "Ġveget": 4008,
      "æįŁ": 4009,
      "equ": 4010,
      "Ġgl": 4011,
      "Ġpain": 4012,
      "ogra": 4013,
      "Ġtraffic": 4014,
      "Ġoce": 4015,
      "ä¹ĺ": 4016,
      "ext": 4017,
      "âĢĿï¼Į": 4018,
      "Ġanother": 4019,
      "å¤ļå°ĳ": 4020,
      "Ġagainst": 4021,
      "ç»ıåİĨ": 4022,
      "è®¡ç®Ĺæľº": 4023,
      "èĢĲ": 4024,
      "è½¯ä»¶": 4025,
      "ĠPre": 4026,
      "Ġplants": 4027,
      "çĽ¸äºĴ": 4028,
      "é¢ĳ": 4029,
      "\\_": 4030,
      "Ġsame": 4031,
      "rug": 4032,
      "Ġvalu": 4033,
      "Ġocc": 4034,
      "çļĦç¤": 4035,
      "Ġsustainability": 4036,
      "ĠShe": 4037,
      "de": 4038,
      "ote": 4039,
      "Ġdig": 4040,
      "NA": 4041,
      "Ġcrucial": 4042,
      "æī§": 4043,
      "å±Ģ": 4044,
      "æĭŁ": 4045,
      "æĭĮ": 4046,
      "Ġnon": 4047,
      "Ġengaging": 4048,
      "Ġintern": 4049,
      "LP": 4050,
      "æ¸©åº¦": 4051,
      "æł¸": 4052,
      "æĬ¥åĳĬ": 4053,
      "æĿ¥è¶Ĭ": 4054,
      "hood": 4055,
      "ä¸īä¸ª": 4056,
      "å¦Ĥä¸ĭ": 4057,
      "çī©ä½ĵ": 4058,
      "force": 4059,
      "Ġneeded": 4060,
      "Ġimages": 4061,
      "Ġbuilding": 4062,
      "icious": 4063,
      "ĠæĪĳ": 4064,
      "è¶ĬæĿ¥è¶Ĭ": 4065,
      "æĶ¾åħ¥": 4066,
      "go": 4067,
      "éĻįä½İ": 4068,
      "å½ĵåľ°": 4069,
      "æ¶Īè´¹èĢħ": 4070,
      "ç£": 4071,
      "iversity": 4072,
      "é¢Ħç®Ĺ": 4073,
      "icle": 4074,
      "æ··åĲĪ": 4075,
      "Ġparticip": 4076,
      "Ġdishes": 4077,
      "Ġthroughout": 4078,
      "Ġwithin": 4079,
      "åı³": 4080,
      "é«ĺçļĦ": 4081,
      "Ġphot": 4082,
      "Ġtrust": 4083,
      "æĦıè¯Ĩ": 4084,
      "ä»¥ç¡®ä¿Ŀ": 4085,
      "çĬ¶æĢģ": 4086,
      "Ġautomation": 4087,
      "11": 4088,
      "Ġpost": 4089,
      "æīĭæľº": 4090,
      "works": 4091,
      "éĢı": 4092,
      "åºĵ": 4093,
      "Ġwind": 4094,
      "Ġ==": 4095,
      "Ġprocessing": 4096,
      "èĮĥåĽ´": 4097,
      "æĦıä¹ī": 4098,
      "è¿½æ±Ĥ": 4099,
      "Ã©": 4100,
      "å¾Ħ": 4101,
      "éĿł": 4102,
      "ä¸ĸ": 4103,
      "èĻ½": 4104,
      "ç«ŀäºī": 4105,
      "Ġappropriate": 4106,
      "æĽ´å¥½çļĦ": 4107,
      "Ġcharacter": 4108,
      "cl": 4109,
      "ç§ĺ": 4110,
      "itude": 4111,
      "Ġteac": 4112,
      "leep": 4113,
      "ĠDevelop": 4114,
      "ince": 4115,
      "å·¦": 4116,
      "ground": 4117,
      "è¡Įä¸ļ": 4118,
      "éĴĪå¯¹": 4119,
      "å¿ħè¦ģ": 4120,
      "Ġdeterm": 4121,
      "----------------": 4122,
      "Ġstreng": 4123,
      "do": 4124,
      "Ġchallenging": 4125,
      "ork": 4126,
      "Ġanx": 4127,
      "èī²çļĦ": 4128,
      "Ġhard": 4129,
      "æĺİç¡®": 4130,
      "åĪĨäº«": 4131,
      "æĶ¹åıĺ": 4132,
      "ä½³": 4133,
      "åıªæľī": 4134,
      "å±ķç¤º": 4135,
      "Ġcamp": 4136,
      "çº³": 4137,
      "aj": 4138,
      "etic": 4139,
      "ument": 4140,
      "ä½łåı¯ä»¥": 4141,
      "Ġpollut": 4142,
      "Ġhig": 4143,
      "pping": 4144,
      "ead": 4145,
      "çĦ¶èĢĮ": 4146,
      "ç¬¬äºĮ": 4147,
      "é¸Ł": 4148,
      "çī©åĵģ": 4149,
      "ä¸¾": 4150,
      "Ġencourage": 4151,
      "pecial": 4152,
      "Ġacross": 4153,
      "elves": 4154,
      "äºĭä»¶": 4155,
      "cle": 4156,
      "æ©": 4157,
      "åªĴä½ĵ": 4158,
      "ners": 4159,
      "Ġcal": 4160,
      "èĻ½çĦ¶": 4161,
      "åĽº": 4162,
      "ä¹łæĥ¯": 4163,
      "Ġsafe": 4164,
      "èĥ½éĩı": 4165,
      "istics": 4166,
      "ä¹ĭåīį": 4167,
      "Ġissue": 4168,
      "å¤ļä¸ª": 4169,
      "åĨ³çŃĸ": 4170,
      "è¾¾åĪ°": 4171,
      "æĹ©": 4172,
      "ä¸įåı¯": 4173,
      "ä¸ĢçĽ´": 4174,
      "å·¨": 4175,
      "æĦŁè°¢": 4176,
      "ĠNew": 4177,
      "ä¸Ģæ®µ": 4178,
      "Ġmachines": 4179,
      "å°Ĩåħ¶": 4180,
      "ç»§ç»Ń": 4181,
      "Ġword": 4182,
      "çī¹åĪ«": 4183,
      "Ġagriculture": 4184,
      "æĢİ": 4185,
      "éĢĲæ¸Ĳ": 4186,
      "éĵ¾": 4187,
      "è¯¾": 4188,
      "Ġkind": 4189,
      "å¢Ļ": 4190,
      "è°¢è°¢": 4191,
      "Ġalgorithm": 4192,
      "è£ħé¥°": 4193,
      "Ġalong": 4194,
      "Ġeasy": 4195,
      "äºĳ": 4196,
      "è§£åĨ³æĸ¹æ¡Ī": 4197,
      "Ġawareness": 4198,
      "'ve": 4199,
      "æĸ¹åĲĳ": 4200,
      "Ġnever": 4201,
      "Ġquickly": 4202,
      "Ġrespect": 4203,
      "çļĦæĻ": 4204,
      "Ġamong": 4205,
      "Ġaccountability": 4206,
      "Ġlaw": 4207,
      "ening": 4208,
      "Ġdefin": 4209,
      "Ġsurround": 4210,
      "éĵģ": 4211,
      "Ġpowerful": 4212,
      "An": 4213,
      "Ġcause": 4214,
      "æ¥": 4215,
      "æİĮæı¡": 4216,
      "è¿ĺæĺ¯": 4217,
      "Ġcreative": 4218,
      "è¡Ģ": 4219,
      "Ġlocated": 4220,
      "unning": 4221,
      "åľ°åĮº": 4222,
      "éĿ¢ç§¯": 4223,
      "éĽ¨": 4224,
      "Ġnear": 4225,
      "Ġiniti": 4226,
      "ression": 4227,
      "ä¸ĭæĿ¥": 4228,
      "25": 4229,
      "é©¶": 4230,
      "¾çĹħ": 4231,
      "ables": 4232,
      "æľīè¶£": 4233,
      "å¾ªçİ¯": 4234,
      "çŃĶæ¡Ī": 4235,
      "çł´": 4236,
      "ication": 4237,
      "éĻ¢": 4238,
      "æ²»çĸĹ": 4239,
      "Ġaddition": 4240,
      "äºĭæĥħ": 4241,
      "Ġbecause": 4242,
      "åıĪ": 4243,
      "èĤĮ": 4244,
      "çºª": 4245,
      "side": 4246,
      "æĭħ": 4247,
      "æ¹¿": 4248,
      "åįĬ": 4249,
      "é¡º": 4250,
      "ĠAnd": 4251,
      "Ġrestaurant": 4252,
      "Ġvide": 4253,
      "Ġproblem": 4254,
      "azing": 4255,
      "Ġmembers": 4256,
      "Ġnut": 4257,
      "Ġcou": 4258,
      "æµª": 4259,
      "Ġè¿Ļ": 4260,
      "Ġhelping": 4261,
      "ĠIs": 4262,
      "æıĲåįĩ": 4263,
      "ĠĠĠĠĠĠ": 4264,
      "Ġsho": 4265,
      "Ġrelev": 4266,
      "Ġarg": 4267,
      "Ġbalance": 4268,
      "illed": 4269,
      "æĺ¯ä»Ģä¹Ī": 4270,
      "åĬĽéĩı": 4271,
      "ired": 4272,
      "å¤ľ": 4273,
      "åı¯æĮģç»Ń": 4274,
      "Ġperfect": 4275,
      "**": 4276,
      "ification": 4277,
      "æ¶ī": 4278,
      "Ġwildlife": 4279,
      "ane": 4280,
      "Ġrelated": 4281,
      "å®¤åĨħ": 4282,
      "åºľ": 4283,
      "äº«åıĹ": 4284,
      "ours": 4285,
      "è·ĳ": 4286,
      "åķĨä¸ļ": 4287,
      "aching": 4288,
      "Ġsun": 4289,
      "Ġrecognition": 4290,
      "elt": 4291,
      "Ġorder": 4292,
      "å¹³åĿĩ": 4293,
      "ging": 4294,
      "ä¸´": 4295,
      "çĤ¼": 4296,
      "Ġgoing": 4297,
      "åĳ¼åĲ¸": 4298,
      "Ġsoftware": 4299,
      "Ġremot": 4300,
      "èĳĹåĲį": 4301,
      "å¹¸ç¦ı": 4302,
      "Ġenhance": 4303,
      "èĻļ": 4304,
      "Ġnow": 4305,
      "Ġthreat": 4306,
      "Ġdest": 4307,
      "åĿĩåĮĢ": 4308,
      "Ġacad": 4309,
      "åºĶå¯¹": 4310,
      "çľĭåĪ°": 4311,
      "cast": 4312,
      "è¾Ĩ": 4313,
      "ificial": 4314,
      "Ġvery": 4315,
      "ook": 4316,
      "åĮºåŁŁ": 4317,
      "¹ģ": 4318,
      "æĪ¿éĹ´": 4319,
      "æıĲä¾ĽäºĨ": 4320,
      "Ġmotiv": 4321,
      "Ġaccessible": 4322,
      "åĨ³å®ļ": 4323,
      "Ġhy": 4324,
      "å®Ī": 4325,
      "Ġflo": 4326,
      "ug": 4327,
      "Ġinformed": 4328,
      "åĵģè´¨": 4329,
      "çļĦçŁ": 4330,
      "aves": 4331,
      "arr": 4332,
      "ĠWith": 4333,
      "let": 4334,
      "è§ĤçĤ¹": 4335,
      "enge": 4336,
      "è¡ĮåĬ¨": 4337,
      "friend": 4338,
      "ç³ķ": 4339,
      "Ġfurther": 4340,
      "ĠEns": 4341,
      "ç§ģ": 4342,
      "Ġado": 4343,
      "Ġclean": 4344,
      "çĽ¸åºĶ": 4345,
      "Ġfre": 4346,
      "pecially": 4347,
      "èĹ": 4348,
      "Ġcapt": 4349,
      "çļĦçľ": 4350,
      "Ġsomeone": 4351,
      "Ġcell": 4352,
      "æĶ¾åľ¨": 4353,
      "æ¬¢è¿İ": 4354,
      "ĠâĢ": 4355,
      "Ġdevices": 4356,
      "çļĦæĸ¹å¼ı": 4357,
      "Ġjobs": 4358,
      "augh": 4359,
      "not": 4360,
      "æľīäºĽ": 4361,
      "åħ¬åħ±": 4362,
      "gest": 4363,
      "çļĦçĶŁæ´»": 4364,
      "çľ¼": 4365,
      "çļĦä¿¡æģ¯": 4366,
      "ĠCons": 4367,
      "æİĴåºı": 4368,
      "Ġbenefit": 4369,
      "rect": 4370,
      "å¤ı": 4371,
      "unte": 4372,
      "ç¬¦åĲĪ": 4373,
      "ä¸Ģä½į": 4374,
      "åĨħéĥ¨": 4375,
      "Ġlooking": 4376,
      "ding": 4377,
      "æĬĺ": 4378,
      "è¾ĳ": 4379,
      "è¿Ļä¸ªéĹ®é¢ĺ": 4380,
      "Ġespecially": 4381,
      "çľł": 4382,
      "âĢĿãĢĤ": 4383,
      "å¥ı": 4384,
      "ray": 4385,
      "è¿ĺåı¯ä»¥": 4386,
      "åĪĽä½ľ": 4387,
      "coming": 4388,
      "Ġmultiple": 4389,
      "éļĲ": 4390,
      "æ³¡": 4391,
      "æłĩåĩĨ": 4392,
      "Ġmil": 4393,
      "éľĢè¦ģæ³¨æĦı": 4394,
      "Ġanxiety": 4395,
      "æĶ¹è¿Ľ": 4396,
      "å±ĭ": 4397,
      "æ±¡æŁĵ": 4398,
      "ç¼ĸç¨ĭ": 4399,
      "è´¹çĶ¨": 4400,
      "Ġevalu": 4401,
      "imately": 4402,
      "Ġliter": 4403,
      "ograph": 4404,
      "Ġsearch": 4405,
      "16": 4406,
      "enced": 4407,
      "Ġmethods": 4408,
      "çĥĪ": 4409,
      "æ¨¡å¼ı": 4410,
      "çĬ¶åĨµ": 4411,
      "æĶ¹åĸĦ": 4412,
      "å¤ļæł·": 4413,
      "cer": 4414,
      "å¥ĸ": 4415,
      "Ġsatis": 4416,
      "Ġwebsite": 4417,
      "åĬŀ": 4418,
      "åģ¥èº«": 4419,
      "Ġglobal": 4420,
      "Ġask": 4421,
      "Ġplatforms": 4422,
      "Ġdiseases": 4423,
      "çİ°è±¡": 4424,
      "tics": 4425,
      "æ±ģ": 4426,
      "åĪ¤æĸŃ": 4427,
      "Ġconvers": 4428,
      "Ġrelationship": 4429,
      "è®¾ç½®": 4430,
      "æ³ķå¾ĭ": 4431,
      "Ġmindful": 4432,
      "é¢Ħæµĭ": 4433,
      "overy": 4434,
      "åģľ": 4435,
      "çĶµè§Ĩ": 4436,
      "è§ĦåĪĻ": 4437,
      "aken": 4438,
      "Ġimplementing": 4439,
      "ising": 4440,
      "åıĤåĬł": 4441,
      "æĥħç»ª": 4442,
      "Ġprovided": 4443,
      "æ·±åħ¥": 4444,
      "Ġprogrammed": 4445,
      "Ġrelevant": 4446,
      "çļĦçĥ": 4447,
      "çĸ¾çĹħ": 4448,
      "åĮ»çĶŁ": 4449,
      "åĪĽå»º": 4450,
      "Ġgenerate": 4451,
      "æĶ¶åħ¥": 4452,
      "ä¼ĳ": 4453,
      "izes": 4454,
      "Ġtransform": 4455,
      "éģµ": 4456,
      "astic": 4457,
      "åĳĪ": 4458,
      "æ¯ıä¸ªäºº": 4459,
      "è¿Ķ": 4460,
      "iet": 4461,
      "Ġvoice": 4462,
      "éĢĶ": 4463,
      "æĶ¾æĿ¾": 4464,
      "åį´": 4465,
      "èĥľ": 4466,
      "Ġstructure": 4467,
      "æĹ¶å°ļ": 4468,
      "ĠQ": 4469,
      "Ġelse": 4470,
      "duc": 4471,
      "Ġemp": 4472,
      "èģļ": 4473,
      "è´§": 4474,
      "aches": 4475,
      "ç§Ģ": 4476,
      "anks": 4477,
      "Ġnight": 4478,
      "Ġprofessionals": 4479,
      "Ġbas": 4480,
      "è´µ": 4481,
      "ec": 4482,
      "Ġdiversity": 4483,
      "ites": 4484,
      "dr": 4485,
      "åĽ°éļ¾": 4486,
      "ĥåľ": 4487,
      "åŀĥåľ": 4488,
      "åŀĥåľ¾": 4489,
      "Ġdrug": 4490,
      "ç¢³": 4491,
      "Ġname": 4492,
      "åĮĸçļĦ": 4493,
      "aid": 4494,
      "æľĢå¤§": 4495,
      "æĳĦ": 4496,
      "ç®ĢåįķçļĦ": 4497,
      "Ġwarm": 4498,
      "Ġdone": 4499,
      "Ġfunction": 4500,
      "asc": 4501,
      "å¼ºè°ĥ": 4502,
      "Ġdemand": 4503,
      "Ġvisual": 4504,
      "Ġupd": 4505,
      "æŃ£åľ¨": 4506,
      "Ġsimilar": 4507,
      "éĢĴ": 4508,
      "æ¯Ľ": 4509,
      "éĶ»": 4510,
      "ently": 4511,
      "Ġvaluable": 4512,
      "Ġdisaster": 4513,
      "ä¸ĢèĪ¬": 4514,
      "æ´²": 4515,
      "ĠReg": 4516,
      "Ġdiscrimination": 4517,
      "åĨĻä¸Ģç¯ĩ": 4518,
      "Ġgovernment": 4519,
      "Ġå¥½çļĦ": 4520,
      "500": 4521,
      "lying": 4522,
      "Ġprev": 4523,
      "Ġprepare": 4524,
      "Ġproblems": 4525,
      "è·³": 4526,
      "Ġprom": 4527,
      "åĨ²": 4528,
      "å®īè£ħ": 4529,
      "éĶ»çĤ¼": 4530,
      "æµĵ": 4531,
      "è¹": 4532,
      "åºĶçĶ¨ç¨ĭåºı": 4533,
      "ng": 4534,
      "Ġcompet": 4535,
      "åĪĨåĪ«": 4536,
      "ological": 4537,
      "å®¡": 4538,
      "Ġtransl": 4539,
      "Ġdirect": 4540,
      "åīĤ": 4541,
      "Ġsuggestions": 4542,
      "Ġpaper": 4543,
      "Ġrecognize": 4544,
      "ton": 4545,
      "Ġmitigate": 4546,
      "è®¨è®º": 4547,
      "äºĴåĬ¨": 4548,
      "ĠEar": 4549,
      "Ġamazing": 4550,
      "cre": 4551,
      "é¦Ī": 4552,
      "Ġinvolved": 4553,
      "face": 4554,
      "æľīåħ³": 4555,
      "))": 4556,
      "Ġexce": 4557,
      "Ġproductivity": 4558,
      "èŃ": 4559,
      "é¦Ĩ": 4560,
      "Ġsounds": 4561,
      "Ġidentifying": 4562,
      "],": 4563,
      "é¾Ļ": 4564,
      "Ġfit": 4565,
      "Ġcontribute": 4566,
      "ths": 4567,
      "friendly": 4568,
      "ele": 4569,
      "ified": 4570,
      "iveness": 4571,
      "itely": 4572,
      "ĠX": 4573,
      "Ġled": 4574,
      "åĿı": 4575,
      "Ġhistor": 4576,
      "Ġdat": 4577,
      "Ġjourney": 4578,
      "Ġ}": 4579,
      "Ġselect": 4580,
      "æ¼«": 4581,
      "Ġconduct": 4582,
      "è¿Ľä¸ĢæŃ¥": 4583,
      "ç»ĻæĪĳ": 4584,
      "Ġlif": 4585,
      "è£ħä¿®": 4586,
      "ä¸ºä»Ģä¹Ī": 4587,
      "äº¬": 4588,
      "Ġnav": 4589,
      "Ġwhole": 4590,
      "ç¹ģ": 4591,
      "åĨľ": 4592,
      "æĶ»": 4593,
      "Ġbreat": 4594,
      "Ġmiss": 4595,
      "é¾Ħ": 4596,
      "tt": 4597,
      "sw": 4598,
      "Ġbar": 4599,
      "è¯·éĹ®": 4600,
      "èģĶç½ĳ": 4601,
      "Ġattract": 4602,
      "æĤ¨åı¯ä»¥": 4603,
      "One": 4604,
      "åħħåĪĨ": 4605,
      "ring": 4606,
      "Ġå½ĵçĦ¶": 4607,
      "ream": 4608,
      "Ġevol": 4609,
      "Ġsn": 4610,
      "ĠEm": 4611,
      "mosp": 4612,
      "Ġchoose": 4613,
      "view": 4614,
      "Ġarr": 4615,
      "Ġsleep": 4616,
      "ended": 4617,
      "æŀ¶": 4618,
      "Ġvehicles": 4619,
      "Ġfresh": 4620,
      "Ġorganization": 4621,
      "è¿Ļæ®µ": 4622,
      "æ±¤": 4623,
      "ĠInt": 4624,
      "Ġcontext": 4625,
      "åı¦å¤ĸ": 4626,
      "Ġocean": 4627,
      "æĦŁåıĹ": 4628,
      "Ġpollution": 4629,
      "urb": 4630,
      "æī§è¡Į": 4631,
      "ersonal": 4632,
      "ĠHealth": 4633,
      "ä¼ĺçĤ¹": 4634,
      "Ġattention": 4635,
      "æľīçĿĢ": 4636,
      "é£ŁæĿĲ": 4637,
      "Ġerr": 4638,
      "çļĦæĿ¥": 4639,
      "çļĦçĪ": 4640,
      "èŃ¦": 4641,
      "è·Ł": 4642,
      "æĹħè¡Į": 4643,
      "èĴľ": 4644,
      "çļĦæĢĿ": 4645,
      "Ġchatbot": 4646,
      "çļĦéľĢæ±Ĥ": 4647,
      "çķ¥": 4648,
      "Ġfeeling": 4649,
      "Ġimplemented": 4650,
      "ç¤¾åĮº": 4651,
      "çļĦå»ºè®®": 4652,
      "æĲħ": 4653,
      "éĹ»": 4654,
      "åıįé¦Ī": 4655,
      "çĽ´æİ¥": 4656,
      "æĺ¥": 4657,
      "itable": 4658,
      "æĪĳä¼ļ": 4659,
      "åį±": 4660,
      "èī¯å¥½": 4661,
      "Ġliving": 4662,
      "åıĺéĩı": 4663,
      "ĠBut": 4664,
      "Ġcomplete": 4665,
      "Ġtrends": 4666,
      "Ġmakes": 4667,
      "ä»Ĭå¤©": 4668,
      "Ġdistribut": 4669,
      "Ġcommit": 4670,
      "Ġatmosp": 4671,
      "ä¼´": 4672,
      "Ġsensors": 4673,
      "Ġsw": 4674,
      "æĹłè®º": 4675,
      "omen": 4676,
      "æĶ¿åºľ": 4677,
      "Ġchallenge": 4678,
      "Ġturn": 4679,
      "çĲĨè®º": 4680,
      "par": 4681,
      "Ġwrite": 4682,
      "ç»ıåħ¸": 4683,
      "emember": 4684,
      "é¥Ń": 4685,
      "æĸ¹ä¾¿": 4686,
      "Ġcu": 4687,
      "Ġvalue": 4688,
      "Ġfund": 4689,
      "pose": 4690,
      "è°ĥæŁ¥": 4691,
      "çĿ¡": 4692,
      "Ġcommunicate": 4693,
      "Ġdisease": 4694,
      "Ġresearc": 4695,
      "Ġlack": 4696,
      "arning": 4697,
      "ĠPark": 4698,
      "çĦ¦": 4699,
      "é«ĺåº¦": 4700,
      "Ġrather": 4701,
      "å®£": 4702,
      "çĪ¶": 4703,
      "éĺ¶": 4704,
      "è®¢": 4705,
      "çĥ§": 4706,
      "Ġhigher": 4707,
      "Ġsummary": 4708,
      "ĠAut": 4709,
      "çļĦæ³": 4710,
      "Ġele": 4711,
      "isms": 4712,
      "Ġreli": 4713,
      "ä¹Łä¼ļ": 4714,
      "fra": 4715,
      "åĳĬè¯īæĪĳ": 4716,
      "æĬ½": 4717,
      "Ġsituations": 4718,
      "Ġmarine": 4719,
      "æĥ³è¦ģ": 4720,
      "inci": 4721,
      "inal": 4722,
      "Ġgain": 4723,
      "Ġdifference": 4724,
      "æľºåĻ¨äºº": 4725,
      "æµģç¨ĭ": 4726,
      "ĠChat": 4727,
      "ç½ĳç«Ļ": 4728,
      "æľ«": 4729,
      "Ġcolor": 4730,
      "Ġaspect": 4731,
      "ç½Ĺ": 4732,
      "ĠEduc": 4733,
      "Ġdeploy": 4734,
      "Ġbeauty": 4735,
      "æĤ£": 4736,
      "ruction": 4737,
      "itut": 4738,
      "æĿŁ": 4739,
      "è®©æĪĳä»¬": 4740,
      "éķ¿åº¦": 4741,
      "ules": 4742,
      "æ¶īåıĬ": 4743,
      "Ġdigital": 4744,
      "Ġexisting": 4745,
      "ĠOr": 4746,
      "\\_\\_": 4747,
      "Ġbackground": 4748,
      "çĹĩ": 4749,
      "æ¯ıå¤©": 4750,
      "python": 4751,
      "Ġfarmers": 4752,
      "Ġcontinu": 4753,
      "\":": 4754,
      "Ġgiven": 4755,
      "å°ıæĹ¶": 4756,
      "Ġmoment": 4757,
      "200": 4758,
      "John": 4759,
      "éĿ¢å¯¹": 4760,
      "Ġintro": 4761,
      "Ġtherapy": 4762,
      "è¿ĶåĽŀ": 4763,
      "å¹¶åľ¨": 4764,
      "Ġz": 4765,
      "Ġafford": 4766,
      "ä¸Ŀ": 4767,
      "å®½": 4768,
      "ĠÃ": 4769,
      "ĠNational": 4770,
      "èĥ¡": 4771,
      "Ġexercise": 4772,
      "æĲħæĭĮ": 4773,
      "æĶ¯ä»ĺ": 4774,
      "éĺ³åħī": 4775,
      "è¯ļ": 4776,
      "Ġsect": 4777,
      "ĠSu": 4778,
      "å¢ŀéķ¿": 4779,
      "ç¾İä¸½": 4780,
      "Ġwa": 4781,
      "ä»¥ä¸ĭæĺ¯ä¸ĢäºĽ": 4782,
      "èĽĭç³ķ": 4783,
      "Ġill": 4784,
      "æ¸ħæĻ": 4785,
      "etry": 4786,
      "æ¢¦": 4787,
      "ç¾İåĽ½": 4788,
      "ä»į": 4789,
      "oney": 4790,
      "Ġecosystems": 4791,
      "æĮĩå¯¼": 4792,
      "def": 4793,
      "99": 4794,
      "æŁĶ": 4795,
      "pped": 4796,
      "Ġlimit": 4797,
      "çİī": 4798,
      "Ġacademic": 4799,
      "Ġrestaurants": 4800,
      "Ġhead": 4801,
      "ä¿¡ä»»": 4802,
      "asters": 4803,
      "å²ģ": 4804,
      "akers": 4805,
      "14": 4806,
      "As": 4807,
      "æł¡": 4808,
      "é«ĺæķĪ": 4809,
      "phas": 4810,
      "yn": 4811,
      "ç¨ĭåº¦": 4812,
      "è¾£": 4813,
      "ä¸ĬéĿ¢": 4814,
      "å®¶å±ħ": 4815,
      "term": 4816,
      "ç¾İé£Ł": 4817,
      "Ġovers": 4818,
      "å®ĺ": 4819,
      "Ġindic": 4820,
      "ĠYour": 4821,
      "St": 4822,
      "å½¢è±¡": 4823,
      "è´¡": 4824,
      "åºĬ": 4825,
      "ĠSc": 4826,
      "agra": 4827,
      "çľŁæŃ£": 4828,
      "oint": 4829,
      "ids": 4830,
      "arent": 4831,
      "éĵ¶": 4832,
      "èģĬ": 4833,
      "Ġregular": 4834,
      "ä¼ĺç§Ģ": 4835,
      "Ġcolle": 4836,
      "çĸĳ": 4837,
      "Ġsubject": 4838,
      "Ġgreater": 4839,
      "Ġstore": 4840,
      "åŁ¹è®Ń": 4841,
      "Ġimag": 4842,
      "Ġansw": 4843,
      "ä½Ļ": 4844,
      "Ġspot": 4845,
      "åĪĨåŃĲ": 4846,
      "Ġaudience": 4847,
      "pet": 4848,
      "Ġvers": 4849,
      "Ġtrail": 4850,
      "åĭĩ": 4851,
      "erous": 4852,
      "Ġguidance": 4853,
      "Ġspeech": 4854,
      "åĵ²": 4855,
      "æĺ¯çĶ±": 4856,
      "è´¡çĮ®": 4857,
      "åĲĪéĢĤçļĦ": 4858,
      "è®¾æĸ½": 4859,
      "ä»ĸäºº": 4860,
      "ensive": 4861,
      "åĢ¾": 4862,
      "aling": 4863,
      "Ġprojects": 4864,
      "å³": 4865,
      "Ġtakes": 4866,
      "ç»©": 4867,
      "That": 4868,
      "Ġbro": 4869,
      "ived": 4870,
      "Ġ&": 4871,
      "åĿĲ": 4872,
      "placement": 4873,
      "è¿ŀæİ¥": 4874,
      "çļĦç¤¾": 4875,
      "ĠTra": 4876,
      "Ġrelax": 4877,
      "ufact": 4878,
      "éģį": 4879,
      "Ġsurv": 4880,
      "åı£åĳ³": 4881,
      "Ġcreativity": 4882,
      "of": 4883,
      "å¨ģ": 4884,
      "çļĦçł": 4885,
      "Ġbreath": 4886,
      "Ġplaces": 4887,
      "Ġdescrib": 4888,
      "èĭ±è¯Ń": 4889,
      "Ġdamage": 4890,
      "oration": 4891,
      "ä¸ºæĤ¨": 4892,
      "ift": 4893,
      "Ġcase": 4894,
      "å¹´é¾Ħ": 4895,
      "Ġpress": 4896,
      "çĶľ": 4897,
      "éĩİ": 4898,
      "æĹħæ¸¸": 4899,
      "Ġtaken": 4900,
      "ined": 4901,
      "Ġconcept": 4902,
      "æĴŃ": 4903,
      "Ġinteresting": 4904,
      "è·µ": 4905,
      "Ġsea": 4906,
      "60": 4907,
      "Ġfoot": 4908,
      "ĠName": 4909,
      "Ġresearchers": 4910,
      "éĢģ": 4911,
      "Ġwee": 4912,
      ");": 4913,
      "çļĦåħ³éĶ®": 4914,
      "ä¼½": 4915,
      "elebr": 4916,
      "å¡ĳ": 4917,
      "We": 4918,
      "ç»ıå¸¸": 4919,
      "Ġpopulations": 4920,
      "åħ¬å¼ı": 4921,
      "orn": 4922,
      "çĩĥ": 4923,
      "äººçĶŁ": 4924,
      "17": 4925,
      "æİ¥åıĹ": 4926,
      "Ġlocation": 4927,
      "Ġinequ": 4928,
      "Ġintervent": 4929,
      "Ġinterested": 4930,
      "Ġdefinitely": 4931,
      "Ġassistance": 4932,
      "è¿Ļä¸Ģ": 4933,
      "åĲĪåĲĮ": 4934,
      "ä¼ĺåĬ¿": 4935,
      "çļĦå·¥ä½ľ": 4936,
      "Ġ12": 4937,
      "Ġmov": 4938,
      "åģı": 4939,
      "åŃĺåĤ¨": 4940,
      "usive": 4941,
      "æĹı": 4942,
      "ï¼īï¼Į": 4943,
      "Ġgas": 4944,
      "Ġinterests": 4945,
      "æ¸ħæĻ°": 4946,
      "Ġgard": 4947,
      "çĸ«": 4948,
      "Ġsay": 4949,
      "å¤«": 4950,
      "ges": 4951,
      "èĲ¨": 4952,
      "ä¸ļåĬ¡": 4953,
      "ä¸ªæĢ§": 4954,
      "åĲ¯": 4955,
      "Ġengagement": 4956,
      "Ġbig": 4957,
      "éľĢè¦ģèĢĥèĻĳ": 4958,
      "Ġprinci": 4959,
      "åĳ¨åĽ´": 4960,
      "Ġopportunity": 4961,
      "çģ¾": 4962,
      "èĹı": 4963,
      "rel": 4964,
      "ç¼ºçĤ¹": 4965,
      "Ġhappy": 4966,
      "åĴĮåħ¶ä»ĸ": 4967,
      "ava": 4968,
      "Ġestablish": 4969,
      "é¸¡èĽĭ": 4970,
      "iking": 4971,
      "ĠTrans": 4972,
      "rastructure": 4973,
      "forest": 4974,
      "èİ·åıĸ": 4975,
      "èĦļ": 4976,
      "inally": 4977,
      "èµı": 4978,
      "Ġdelicious": 4979,
      "Ġresults": 4980,
      "è§Ĥå¯Ł": 4981,
      "å®ŀè·µ": 4982,
      "Ġlast": 4983,
      "Ġpolit": 4984,
      "æĢ§èĥ½": 4985,
      "For": 4986,
      "bi": 4987,
      "çĽ¸ä¿¡": 4988,
      "ffee": 4989,
      "Ġphr": 4990,
      "Ġforest": 4991,
      "elling": 4992,
      "æµģè¡Į": 4993,
      "atic": 4994,
      "å¤§å®¶": 4995,
      "ĠInst": 4996,
      "æķ°åŃ¦": 4997,
      "æī©": 4998,
      "å®Įåħ¨": 4999,
      "å¼ķèµ·": 5000,
      "ese": 5001,
      "è½¬æį¢": 5002,
      "Ġaffected": 5003,
      "Ġrobotics": 5004,
      "ç»¼ä¸Ĭ": 5005,
      "Ġprop": 5006,
      "è®©äºº": 5007,
      "æ²³": 5008,
      "ä¸ŃæľĢ": 5009,
      "Ġautonomous": 5010,
      "Ġhaving": 5011,
      "Ġtrip": 5012,
      "ury": 5013,
      "Ġbiased": 5014,
      "Ġconsiderations": 5015,
      "Ġparticular": 5016,
      "åįł": 5017,
      "æİ¨å¹¿": 5018,
      "Ġinitiatives": 5019,
      "ials": 5020,
      "åĳ³éģĵ": 5021,
      "Ġtreatments": 5022,
      "Ġemphas": 5023,
      "çĭ¬çī¹çļĦ": 5024,
      "Ġlay": 5025,
      "æĶ¿çŃĸ": 5026,
      "æĢİä¹Ī": 5027,
      "ronic": 5028,
      "play": 5029,
      "Ġcook": 5030,
      "è¿Ľåħ¥": 5031,
      "è½®": 5032,
      "Ġvolunte": 5033,
      "Ġrain": 5034,
      "ĠMon": 5035,
      "Ġconsumption": 5036,
      "èĽĭçĻ½": 5037,
      "ĠSoc": 5038,
      "å£¤": 5039,
      "Ġroutine": 5040,
      "Ġimproved": 5041,
      "To": 5042,
      "äººçī©": 5043,
      "è¯»èĢħ": 5044,
      "Ġgoal": 5045,
      "å¹¿åĳĬ": 5046,
      "éķ¿æľŁ": 5047,
      "Ġey": 5048,
      "He": 5049,
      "Ġoutdo": 5050,
      "Ġcuis": 5051,
      "Ġaway": 5052,
      "Ġbooks": 5053,
      "Ġtopic": 5054,
      "å¤§åĪ©": 5055,
      "house": 5056,
      "Ġones": 5057,
      "ç§Ł": 5058,
      "':": 5059,
      "æĪ¿å±ĭ": 5060,
      "ç§»åĬ¨": 5061,
      "Ġdisasters": 5062,
      "ests": 5063,
      "illing": 5064,
      "ç»¿èī²": 5065,
      "åĵ²åŃ¦": 5066,
      "æĪĲåĪĨ": 5067,
      "Ġoccur": 5068,
      "ľä¼½": 5069,
      "åľŁå£¤": 5070,
      "çļĦä¸»è¦ģ": 5071,
      "çİ°å®ŀ": 5072,
      "Ġanimal": 5073,
      "é¢Ĩå¯¼": 5074,
      "Ġviews": 5075,
      "éĤ®": 5076,
      "æ°§åĮĸ": 5077,
      "athy": 5078,
      "éģĵå¾·": 5079,
      "ç¤¾äº¤åªĴä½ĵ": 5080,
      "ĠPersonal": 5081,
      "ĽåĽ´": 5082,
      "Ġpurch": 5083,
      "Ġcountry": 5084,
      "Ġremind": 5085,
      "å¯¸": 5086,
      "Ġrights": 5087,
      "çļĦçİ¯å¢ĥ": 5088,
      "ĠPr": 5089,
      "Ġline": 5090,
      "ibr": 5091,
      "é©¾": 5092,
      "Ġmaj": 5093,
      "Ġovercome": 5094,
      "Ġnext": 5095,
      "æīĢè¿°": 5096,
      "è§Ħå®ļ": 5097,
      "Ġinteractions": 5098,
      "Ġconflic": 5099,
      "Ġwhy": 5100,
      "ç³»åĪĹ": 5101,
      "å°¼": 5102,
      "ibly": 5103,
      "çīĽå¥¶": 5104,
      "Ġresponses": 5105,
      "ses": 5106,
      "åŃ¦ä¼ļ": 5107,
      "bol": 5108,
      "Ġstandards": 5109,
      "ulner": 5110,
      "å¯¹è¯ĿåĨħå®¹": 5111,
      "lished": 5112,
      "çļĦæĢ§": 5113,
      "çĶŁæĢģç³»ç»Ł": 5114,
      "ann": 5115,
      "æĥħåĨµä¸ĭ": 5116,
      "å¯»æ±Ĥ": 5117,
      "Ġhold": 5118,
      "den": 5119,
      "åįĥ": 5120,
      "Ġmention": 5121,
      "ĠMany": 5122,
      "çĽ´åĪ°": 5123,
      "éģĹ": 5124,
      "hel": 5125,
      "Ġbelieve": 5126,
      "aries": 5127,
      "æľīä¸Ģä¸ª": 5128,
      "13": 5129,
      "Ġatmosphere": 5130,
      "Ġmor": 5131,
      "æĹ¥æľŁ": 5132,
      "ä¹ħ": 5133,
      "ä½łå¥½": 5134,
      "Ġaddressing": 5135,
      "ĠâĢĵ": 5136,
      "çļĦåľ°æĸ¹": 5137,
      "ming": 5138,
      "Ġcannot": 5139,
      "Ġmanufact": 5140,
      "Ġpie": 5141,
      "icing": 5142,
      "Ġstudies": 5143,
      "ç¾İåĳ³": 5144,
      "ĠAmerican": 5145,
      "ĠNLP": 5146,
      "Ġaccording": 5147,
      "mselves": 5148,
      "èĦĤ": 5149,
      "èĩªä¿¡": 5150,
      "æīĢéľĢ": 5151,
      "Ġthemselves": 5152,
      "Ġremote": 5153,
      "åŁ¹åħ»": 5154,
      "å®īæİĴ": 5155,
      "ä½łéľĢè¦ģ": 5156,
      "Ġregard": 5157,
      "iring": 5158,
      "è¯ĨåĪ«": 5159,
      "Ġarticle": 5160,
      "æģĴ": 5161,
      "æĢ»çļĦæĿ¥": 5162,
      "Ġalign": 5163,
      "æ±ł": 5164,
      "tenance": 5165,
      "faction": 5166,
      "åĬ¨ä½ľ": 5167,
      "çļĦç©": 5168,
      "ç¼©": 5169,
      "æĢ¥": 5170,
      "Ġ100": 5171,
      "Ġtesting": 5172,
      "åŃĹæ¯į": 5173,
      "å¹´è½»": 5174,
      "åĪ¶éĢł": 5175,
      "Ġswe": 5176,
      "å°º": 5177,
      "hens": 5178,
      "æ°´æŀľ": 5179,
      "Ġinfrastructure": 5180,
      "èī²å½©": 5181,
      "æĢ»çļĦæĿ¥è¯´": 5182,
      "æľīä»Ģä¹Ī": 5183,
      "text": 5184,
      "è½¦è¾Ĩ": 5185,
      "Ġpay": 5186,
      "rop": 5187,
      "ĊĠĠ": 5188,
      "Ġcaused": 5189,
      "Ġcorrect": 5190,
      "Ġì": 5191,
      "èĥŀ": 5192,
      "ĠMed": 5193,
      "ç²¾ç¥ŀ": 5194,
      "æ°ĶåĢĻåıĺåĮĸ": 5195,
      "ĠRed": 5196,
      "äºĴèģĶç½ĳ": 5197,
      "Ġengage": 5198,
      "åĪĨä¸º": 5199,
      "ĠData": 5200,
      "Ġfull": 5201,
      "enc": 5202,
      "éĩįæĸ°": 5203,
      "æŃ£ç¡®çļĦ": 5204,
      "çļĦæ°Ķ": 5205,
      "åıĮæĸ¹": 5206,
      "Ġcomes": 5207,
      "åı¤ä»£": 5208,
      "æŁĲäºĽ": 5209,
      "åĳĪçİ°": 5210,
      "Ġtoday": 5211,
      "aged": 5212,
      "æĪĳåı¯ä»¥": 5213,
      "æĹ¥å¸¸": 5214,
      "æ»ĳ": 5215,
      "Ġclin": 5216,
      "Ġ\\": 5217,
      "Ġobs": 5218,
      "Ġartificial": 5219,
      "Ġexcell": 5220,
      "çļĦç¬": 5221,
      "alls": 5222,
      "Ġproduce": 5223,
      "ĠDes": 5224,
      "oss": 5225,
      "è¹Ī": 5226,
      "Ġdraw": 5227,
      "Ġletter": 5228,
      "Ġadvice": 5229,
      "Ġhighly": 5230,
      "çĬ¯": 5231,
      "ç»¼ä¸ĬæīĢè¿°": 5232,
      "æ»¡æĦı": 5233,
      "Ġprinciples": 5234,
      "èĮĦ": 5235,
      "Ġfeelings": 5236,
      "çļĦæ´": 5237,
      "Ġhom": 5238,
      "Ġfail": 5239,
      "Ġcrop": 5240,
      "å§ľ": 5241,
      "Ġquestion": 5242,
      "Ġdisabilities": 5243,
      "èĪŀè¹Ī": 5244,
      "Ġimplications": 5245,
      "ral": 5246,
      "Ġsing": 5247,
      "40": 5248,
      "Ġfamil": 5249,
      "Ġgovernments": 5250,
      "Ġrecord": 5251,
      "å½¢çĬ¶": 5252,
      "Ġbegin": 5253,
      "ises": 5254,
      "çļĦæĥ³": 5255,
      "achine": 5256,
      "è°±": 5257,
      "Ġvulner": 5258,
      "Ġproper": 5259,
      "Ġoversight": 5260,
      "è´ŁéĿ¢": 5261,
      "Ġemail": 5262,
      "Ġnews": 5263,
      "Ġexploring": 5264,
      "Ġfavor": 5265,
      "æ¥¼": 5266,
      "å®ľ": 5267,
      "Ġunivers": 5268,
      "å·®å¼Ĥ": 5269,
      "ï¼īãĢĤ": 5270,
      "è§£åĨ³éĹ®é¢ĺ": 5271,
      "Ġfamous": 5272,
      "gn": 5273,
      "Ġmessage": 5274,
      "atitude": 5275,
      "Ġcra": 5276,
      "Ġcover": 5277,
      "æ·±åĪ»": 5278,
      "åı¯ä»¥éĢīæĭ©": 5279,
      "çĶŁæ´»ä¸Ń": 5280,
      "ç§įç±»": 5281,
      "Ġsmart": 5282,
      "onstr": 5283,
      "vey": 5284,
      "çĶ²": 5285,
      "Ġregularly": 5286,
      "ĠSm": 5287,
      "æĦŁè§ī": 5288,
      "Ġthought": 5289,
      "Ġexh": 5290,
      "cure": 5291,
      "ç»ĺ": 5292,
      "è®¤è¯Ĩ": 5293,
      "Ġold": 5294,
      "æĦī": 5295,
      "ç§°ä¸º": 5296,
      "Ġfields": 5297,
      "Ġconsist": 5298,
      "ãģ": 5299,
      "ç»Ĩèĥŀ": 5300,
      "Ġhours": 5301,
      "80": 5302,
      "alking": 5303,
      "è§īå¾Ĺ": 5304,
      "ç»Ŀ": 5305,
      "ä½łä»¬": 5306,
      "ĠEnglish": 5307,
      "Ġsignificantly": 5308,
      "Ġsource": 5309,
      "Ġant": 5310,
      "Ġeducational": 5311,
      "Ġtask": 5312,
      "Ġhandle": 5313,
      "æĲľ": 5314,
      "ĠSp": 5315,
      "Ġcalled": 5316,
      "Ġterms": 5317,
      "æ²ī": 5318,
      "Ġwin": 5319,
      "duction": 5320,
      "Ġmodern": 5321,
      "Ġcuisine": 5322,
      "å¥Ĺ": 5323,
      "è§¦": 5324,
      "olutely": 5325,
      "ç«¥": 5326,
      "pite": 5327,
      "Ġfelt": 5328,
      "Ġcompre": 5329,
      "Ġwond": 5330,
      "è¿Ĳè¡Į": 5331,
      "Ġresil": 5332,
      "çĽ¸ä¼¼": 5333,
      "éĩĳèŀį": 5334,
      "çĪ±æĥħ": 5335,
      "ç¬Ķ": 5336,
      "èĪª": 5337,
      "è°Ī": 5338,
      "åĬĽçļĦ": 5339,
      "æľīæīĢ": 5340,
      "æ½ľ": 5341,
      "ulate": 5342,
      "Ġdetection": 5343,
      "å®£ä¼ł": 5344,
      "Ġmatter": 5345,
      "éĩıåŃĲ": 5346,
      "Write": 5347,
      "ç»ĵåĲĪ": 5348,
      "ç»ıè¿ĩ": 5349,
      "Ġdevelopers": 5350,
      "èª": 5351,
      "Ġ---": 5352,
      "äººéĻħ": 5353,
      "çŃ¾": 5354,
      "ï¼ļâĢľ": 5355,
      "Ġinnovative": 5356,
      "ãĢĤâĢĿ": 5357,
      "å½¼": 5358,
      "é¥¼": 5359,
      "è¿ĩåº¦": 5360,
      "Ġplanet": 5361,
      "åħ°": 5362,
      "å¸ģ": 5363,
      "æķ¬": 5364,
      "Ġlegal": 5365,
      "Ġlot": 5366,
      "æĪĲä¸ºäºĨ": 5367,
      "iate": 5368,
      "Ġmis": 5369,
      "åģĩè®¾": 5370,
      "çļĦæĸĩç«ł": 5371,
      "ĠCompan": 5372,
      "Ġdoc": 5373,
      "Ġcareful": 5374,
      "Ġever": 5375,
      "æĪĳä»¬å°Ĩ": 5376,
      "ä¾ĭåŃĲ": 5377,
      "ä¹³": 5378,
      "ä½ľèĢħ": 5379,
      "åĲ§": 5380,
      "æļ´": 5381,
      "Ġremember": 5382,
      "çĽ®çļĦ": 5383,
      "Ġput": 5384,
      "å¸¸è§ģçļĦ": 5385,
      "Ġfest": 5386,
      "å»ºè®¾": 5387,
      "å®ŀçĶ¨": 5388,
      "Ġactive": 5389,
      "çªĹ": 5390,
      "outh": 5391,
      "åİŁçĲĨ": 5392,
      "Ġtrying": 5393,
      "è¿·": 5394,
      "çĽ¸åĲĮ": 5395,
      "éħĴåºĹ": 5396,
      "Another": 5397,
      "æľĢä½³": 5398,
      "Ġanalytics": 5399,
      "Ġperpet": 5400,
      "ipment": 5401,
      "Ġå¦Ĥæŀľ": 5402,
      "è§Ĥä¼Ĺ": 5403,
      "Ġcelebr": 5404,
      "Ġheav": 5405,
      "Ġmeditation": 5406,
      "å¤§æ°Ķ": 5407,
      "And": 5408,
      "ä¸įéĶĻ": 5409,
      "Ġwhether": 5410,
      "set": 5411,
      "Ġdemonstr": 5412,
      "ä¸Ģæ¬¾": 5413,
      "æĶ¶éĽĨ": 5414,
      "éĻĲåĪ¶": 5415,
      "Ġing": 5416,
      "Ġrevolution": 5417,
      "çľģ": 5418,
      "Ġscience": 5419,
      "çĽ®åīį": 5420,
      "Ġthinking": 5421,
      "±ä¹Ĳ": 5422,
      "è¯¾ç¨ĭ": 5423,
      "Ġpack": 5424,
      "Ġimage": 5425,
      "loc": 5426,
      "Ġstories": 5427,
      "uck": 5428,
      "Ġsatisfaction": 5429,
      "Ġcollection": 5430,
      "ho": 5431,
      "èµŀ": 5432,
      "éĿ¢ä¸´": 5433,
      "Ġla": 5434,
      "Ġsymbol": 5435,
      "Ġemb": 5436,
      "Ġhabitats": 5437,
      "Ġlower": 5438,
      "Ġcontinues": 5439,
      "éľĩ": 5440,
      "åĵĪ": 5441,
      "ĠTake": 5442,
      "Ġenvironments": 5443,
      "Ġthree": 5444,
      "Ġenc": 5445,
      "ĠAcc": 5446,
      "æĦıåĳ³": 5447,
      "åİ¨": 5448,
      "chan": 5449,
      "ĠHum": 5450,
      "Ġtrue": 5451,
      "åĪĩæĪĲ": 5452,
      "sing": 5453,
      "âĢĶâĢĶ": 5454,
      "åĩºæĿ¥": 5455,
      "Ġregion": 5456,
      "Ġinterpre": 5457,
      "Ġdiagnosis": 5458,
      "éŀ": 5459,
      "Ġdoing": 5460,
      "Ġrun": 5461,
      "Ġcoffee": 5462,
      "Ġmajor": 5463,
      "Ġmindfulness": 5464,
      "Ġaffordable": 5465,
      "çĻ¾": 5466,
      "Ġdetailed": 5467,
      "éĿŀå¸¸éĩįè¦ģçļĦ": 5468,
      "çļĦæ²ŁéĢļ": 5469,
      "çļĦæķħ": 5470,
      "åĢĴåħ¥": 5471,
      "Ġthemes": 5472,
      "Ġnetwork": 5473,
      "ï¼īï¼ļ": 5474,
      "ĠUnited": 5475,
      "çļĦæĮĩ": 5476,
      "orts": 5477,
      "åį«çĶŁ": 5478,
      "Ġplanning": 5479,
      "æĥł": 5480,
      "åīª": 5481,
      "ĠProv": 5482,
      "çļĦåºĶçĶ¨": 5483,
      "Ġperi": 5484,
      "Ġaccountable": 5485,
      "çīĻ": 5486,
      "çļĦçģ": 5487,
      "Ġchoice": 5488,
      "ĠComm": 5489,
      "idents": 5490,
      "çļĦå®īåħ¨": 5491,
      "å¹¶ä¸į": 5492,
      "å¤ªéĺ³ç³»": 5493,
      "Ġreceive": 5494,
      "Ġclose": 5495,
      "çļĦæĹ¶åĢĻ": 5496,
      "Ġchanging": 5497,
      "ä»·åĢ¼è§Ĥ": 5498,
      "Ġperpetu": 5499,
      "Ġseason": 5500,
      "Ġmen": 5501,
      "Ġlearned": 5502,
      "Ġsituation": 5503,
      "Ġreplace": 5504,
      "head": 5505,
      "è®©æĪĳ": 5506,
      "åľ¨ä¸Ģèµ·": 5507,
      "çļĦç©º": 5508,
      "éľ²": 5509,
      "Ġenough": 5510,
      "å±ķçİ°": 5511,
      "Ġleaders": 5512,
      "ancing": 5513,
      "Ġtemperature": 5514,
      "åı«": 5515,
      "Ġ30": 5516,
      "æĦıåĳ³çĿĢ": 5517,
      "æ±ĩ": 5518,
      "ĠGovern": 5519,
      "Ġfocused": 5520,
      "uro": 5521,
      "Ġsimple": 5522,
      "Ġhiking": 5523,
      "æ¯Ĵ": 5524,
      "Ġcomprehens": 5525,
      "äºĪ": 5526,
      "Ġcreated": 5527,
      "cond": 5528,
      "é¡µ": 5529,
      "ĠWor": 5530,
      "è¯ģæį®": 5531,
      "Ġworkplace": 5532,
      "Ġcharacters": 5533,
      "çļĦè®¾è®¡": 5534,
      "Ġmechan": 5535,
      "ĠDis": 5536,
      "ç¥ŀç§ĺ": 5537,
      "å·ŀ": 5538,
      "ĠOn": 5539,
      "</": 5540,
      "ç§įæ¤į": 5541,
      "Ġpath": 5542,
      "Ġlimited": 5543,
      "Ġsolar": 5544,
      "çļĦæı": 5545,
      "22": 5546,
      "Ġappreciate": 5547,
      "å¿«ä¹Ĳ": 5548,
      "æĦŁåıĹåĪ°": 5549,
      "èĢĹ": 5550,
      "med": 5551,
      "icine": 5552,
      "Ġnote": 5553,
      "å½ĵåīį": 5554,
      "æĪĳä»¬åºĶè¯¥": 5555,
      "Ġseen": 5556,
      "ä¸ĢåĲį": 5557,
      "å°½åı¯èĥ½": 5558,
      "è¿Ĳç®Ĺ": 5559,
      "è§Ĵåº¦": 5560,
      "Ġequipment": 5561,
      "Ġspread": 5562,
      "è¸": 5563,
      "è®¿": 5564,
      "åı¥è¯Ŀ": 5565,
      "æĮ¥": 5566,
      "Ġpurpose": 5567,
      "è¯·ä½ł": 5568,
      "Your": 5569,
      "arian": 5570,
      "ä»ª": 5571,
      "Ġperspectives": 5572,
      "åĩºäºĨ": 5573,
      "å©ļç¤¼": 5574,
      "Ġexcellent": 5575,
      "ĠEnsuring": 5576,
      "Ġreach": 5577,
      "éĺ¶æ®µ": 5578,
      "ä¿Ŀéļľ": 5579,
      "Ġempathy": 5580,
      "ĠMy": 5581,
      "çĳľä¼½": 5582,
      "Ġver": 5583,
      "abel": 5584,
      "ĠPredict": 5585,
      "Ġmaintenance": 5586,
      "è¯Ħä»·": 5587,
      "Ġult": 5588,
      "åĴ¨": 5589,
      "ox": 5590,
      "åĴ¨è¯¢": 5591,
      "Ġshared": 5592,
      "ina": 5593,
      "list": 5594,
      "Ġoutdoor": 5595,
      "Ġthoughts": 5596,
      "inating": 5597,
      "éĴ±": 5598,
      "Ġframe": 5599,
      "éĺ¿": 5600,
      "åĪ©æ¶¦": 5601,
      "çļĦæİ¨": 5602,
      "åįļ": 5603,
      "Ġrecent": 5604,
      "Ġaltern": 5605,
      "ared": 5606,
      "==": 5607,
      "Ġroad": 5608,
      "äºĭé¡¹": 5609,
      "ged": 5610,
      "ynt": 5611,
      "Ġspend": 5612,
      "ç½ª": 5613,
      "åıĸå¾Ĺ": 5614,
      "é¹": 5615,
      "li": 5616,
      "æĹ¶æľŁ": 5617,
      "ä¸¥éĩį": 5618,
      "å¿Ĩ": 5619,
      "å©´": 5620,
      "æİ¥ä¸ĭæĿ¥": 5621,
      "ĠEarth": 5622,
      "ĠChatbots": 5623,
      "Ġsetting": 5624,
      "ç¥Ŀ": 5625,
      "éĶĢåĶ®é¢Ŀ": 5626,
      "ä¼¦": 5627,
      "Ġreading": 5628,
      "æİ¢è®¨": 5629,
      "aign": 5630,
      "éŀĭ": 5631,
      "Ġyoung": 5632,
      "Ġcareer": 5633,
      "Ġteachers": 5634,
      "çļĦè´¨éĩı": 5635,
      "å±ŀäºİ": 5636,
      "Ġeasier": 5637,
      "Ġscientific": 5638,
      "ç¾İåħĥ": 5639,
      "Ġspir": 5640,
      "åĬ³": 5641,
      "çļĦæĶ¯": 5642,
      "rist": 5643,
      "èµĦäº§": 5644,
      "çĶŁåŃĺ": 5645,
      "èĩ³å°ĳ": 5646,
      "å§¿": 5647,
      "Ġvideo": 5648,
      "Ġaim": 5649,
      "å®Ŀå®Ŀ": 5650,
      "çĪ¶æ¯į": 5651,
      "________________": 5652,
      "alities": 5653,
      "Ġbud": 5654,
      "Ġstreet": 5655,
      "Ġæĺ¯": 5656,
      "æĸ¹ç¨ĭ": 5657,
      "ä¸ĸçºª": 5658,
      "ches": 5659,
      "earch": 5660,
      "æĴ°": 5661,
      "Ġengine": 5662,
      "Ġdisplacement": 5663,
      "ĠRobots": 5664,
      "ervised": 5665,
      "é¡¶": 5666,
      "oud": 5667,
      "Ġwalk": 5668,
      "Ġemergency": 5669,
      "èģĺ": 5670,
      "nal": 5671,
      "Ġdatas": 5672,
      "åĢº": 5673,
      "åĲİçļĦ": 5674,
      "å¾Īå¥½": 5675,
      "Ġmyself": 5676,
      "çļĦæīĭ": 5677,
      "Ġusage": 5678,
      "Ġshown": 5679,
      "æ®Ĭ": 5680,
      "Ġtypically": 5681,
      "uly": 5682,
      "æĸ°éĹ»": 5683,
      "æĽ¿": 5684,
      "Ġorig": 5685,
      "è½»æĿ¾": 5686,
      "æĺ¾ç¤º": 5687,
      "Ġadopt": 5688,
      "èĤ¡ç¥¨": 5689,
      "Ġparent": 5690,
      "aps": 5691,
      "æĢĿæĥ³": 5692,
      "Ġmarketing": 5693,
      "èĻ«": 5694,
      "éĥ¨éĹ¨": 5695,
      "çļĦæķĪ": 5696,
      "Ġcomfortable": 5697,
      "åŃ¦ä¹łåĴĮ": 5698,
      "Ġforecast": 5699,
      "iction": 5700,
      "Ġgetting": 5701,
      "Ġtrees": 5702,
      "aving": 5703,
      "çļĦåŁºç¡Ģ": 5704,
      "ready": 5705,
      "æĸ°é²ľ": 5706,
      "going": 5707,
      "¹é¥": 5708,
      "Ġevidence": 5709,
      "¹é¥ª": 5710,
      "ç§ĭ": 5711,
      "æľīå¾Īå¤ļ": 5712,
      "éĿ¢è¯ķ": 5713,
      "éģĩåĪ°": 5714,
      "ç»Ļå®ļ": 5715,
      "irc": 5716,
      "åı¯ä»¥æł¹æį®": 5717,
      "é©¾é©¶": 5718,
      "å·§åħĭ": 5719,
      "Ġstunning": 5720,
      "çļĦæ¦Ĥ": 5721,
      "æ¡Į": 5722,
      "ĠJohn": 5723,
      "ulation": 5724,
      "åıĤèĢĥ": 5725,
      "Ġflex": 5726,
      "çĦ¦èĻĳ": 5727,
      "ymakers": 5728,
      "Ġforms": 5729,
      "sh": 5730,
      "val": 5731,
      "ĠSo": 5732,
      "co": 5733,
      "æİ¨åĬ¨": 5734,
      "èħ¿": 5735,
      "çī¹æ®Ĭ": 5736,
      "Ġenab": 5737,
      "å°Ĩä¼ļ": 5738,
      "æĶ¯åĩº": 5739,
      "åĿļæĮģ": 5740,
      "çº¢èī²": 5741,
      "Ġoption": 5742,
      "Ġstarted": 5743,
      "ration": 5744,
      "Ġpoetry": 5745,
      "Ġport": 5746,
      "gen": 5747,
      "èªī": 5748,
      "Ġdeliv": 5749,
      "çĶļ": 5750,
      "éĢ»": 5751,
      "éĢīé¡¹": 5752,
      "Ġground": 5753,
      "å½¼æŃ¤": 5754,
      "ana": 5755,
      "çļĦæĹ¥": 5756,
      "åľ¨çº¿": 5757,
      "Ġsecure": 5758,
      "Ġæł¹æį®": 5759,
      "é¥®æĸĻ": 5760,
      "Ġgratitude": 5761,
      "ç¬¬ä¸ī": 5762,
      "Ġsong": 5763,
      "Ġpoints": 5764,
      "Ġalready": 5765,
      "çļĦçĪ±": 5766,
      "ĠTechn": 5767,
      "Ġreality": 5768,
      "çıŃ": 5769,
      "Ġsince": 5770,
      "Ġpopulation": 5771,
      "yond": 5772,
      "bor": 5773,
      "ĠSocial": 5774,
      "æıĲåıĸ": 5775,
      "å·¥ç¨ĭ": 5776,
      "aff": 5777,
      "äº¤æĺĵ": 5778,
      "Ġworth": 5779,
      "å¡«": 5780,
      "å¨±ä¹Ĳ": 5781,
      "Ġdog": 5782,
      "ĠArt": 5783,
      "ç¡¬": 5784,
      "æµ·æ´ĭ": 5785,
      "åĨĴ": 5786,
      "çīĪ": 5787,
      "Ġprogramming": 5788,
      "ĠAss": 5789,
      "ĠMachine": 5790,
      "åĢ¼å¾Ĺ": 5791,
      "è¯·è¾ĵåħ¥": 5792,
      "å£°éŁ³": 5793,
      "Ġexercises": 5794,
      "åħīçº¿": 5795,
      "æ³ķåĴĮ": 5796,
      "Ġfeature": 5797,
      "eff": 5798,
      "è¿ĽæŃ¥": 5799,
      "å¥³æĢ§": 5800,
      "Ġefficiently": 5801,
      "çļĦæĬĢæľ¯": 5802,
      "Ġgenetic": 5803,
      "ä»¤äºº": 5804,
      "è´¦": 5805,
      "çļĦäº§åĵģ": 5806,
      "åİļ": 5807,
      "åĴĮæĸĩåĮĸ": 5808,
      "éĻĦ": 5809,
      "Ġmob": 5810,
      "ç»¼åĲĪ": 5811,
      "ters": 5812,
      "æľīä¸Ģ": 5813,
      "å¦Ĩ": 5814,
      "åįĪ": 5815,
      "Ġoutside": 5816,
      "Ġpropert": 5817,
      "éĤ®ä»¶": 5818,
      "ä¸»ä¹ī": 5819,
      "Ġpolicy": 5820,
      "èĩªèº«": 5821,
      "Ġnavigate": 5822,
      "Ġsty": 5823,
      "çĶµèĦĳ": 5824,
      "Ġabilities": 5825,
      "Ġfaced": 5826,
      "çļĦç¼": 5827,
      "çļĦå°ı": 5828,
      "èķ": 5829,
      "Ġtone": 5830,
      "igation": 5831,
      "åıĤæķ°": 5832,
      "èĽĭçĻ½è´¨": 5833,
      "ä½Ľ": 5834,
      "çĶļèĩ³": 5835,
      "Ġskin": 5836,
      "èĴ¸": 5837,
      "æĭĽ": 5838,
      "éŃĶ": 5839,
      "ashion": 5840,
      "Ġingred": 5841,
      "æĹĭ": 5842,
      "Ġcampaign": 5843,
      "Ġmount": 5844,
      "Ġconsid": 5845,
      "Ġmuse": 5846,
      "nter": 5847,
      "water": 5848,
      "ä¼ļè®®": 5849,
      "Ġprotection": 5850,
      "ä¿ĿéĻ©": 5851,
      "Ġcrops": 5852,
      "ogle": 5853,
      "éļıæĹ¶": 5854,
      "æļĹ": 5855,
      "ium": 5856,
      "ä¹ı": 5857,
      "Ġdiet": 5858,
      "lies": 5859,
      "çĶ¨æĿ¥": 5860,
      "ĠEncoura": 5861,
      "æĬĹ": 5862,
      "apan": 5863,
      "éĺ²æŃ¢": 5864,
      "Wow": 5865,
      "çļĦåŁºæľ¬": 5866,
      "å¹³æĸ¹": 5867,
      "Ġstep": 5868,
      "åı¯éĿł": 5869,
      "è¡¨æĺİ": 5870,
      "Ġpredictions": 5871,
      "Ġsympt": 5872,
      "Ġdiagnoses": 5873,
      "åħ¬åĽŃ": 5874,
      "Ġsupply": 5875,
      "Ġprevious": 5876,
      "ç»ĦåĲĪ": 5877,
      ".,": 5878,
      "çļĦè¿ĩç¨ĭ": 5879,
      "æķı": 5880,
      "su": 5881,
      "aris": 5882,
      "çķħ": 5883,
      "ocol": 5884,
      "æĲľç´¢": 5885,
      "itle": 5886,
      "éĨĴ": 5887,
      "é¡¾å®¢": 5888,
      "éĢ»è¾ĳ": 5889,
      "éĿŀå¸¸éĩįè¦ģ": 5890,
      "ĠBi": 5891,
      "å·¦åı³": 5892,
      "amm": 5893,
      "Ġeverything": 5894,
      "æĺł": 5895,
      "Ġincred": 5896,
      "Ġpeace": 5897,
      "èľľ": 5898,
      "Ġmuseum": 5899,
      "çĭ¬ç«ĭ": 5900,
      "Ġcomprehensive": 5901,
      "Ġrates": 5902,
      "//": 5903,
      "Ġrad": 5904,
      "åĦ¿ç«¥": 5905,
      "çī¹èī²": 5906,
      "ĠPredictive": 5907,
      "å¼ķåĬĽ": 5908,
      "ler": 5909,
      "å°¤": 5910,
      "icro": 5911,
      "è¡¥": 5912,
      "Ġdetermine": 5913,
      "çļĦåĨħå®¹": 5914,
      "Ġcompl": 5915,
      "Ġgreenhouse": 5916,
      "èħĲ": 5917,
      "Ġhighlight": 5918,
      "Ġpartners": 5919,
      "Ġdoct": 5920,
      "çļĦä½¿çĶ¨": 5921,
      "æŃĮæĽ²": 5922,
      "æĮĩåįĹ": 5923,
      "ĠAf": 5924,
      "æľºæŀĦ": 5925,
      "éĢĢ": 5926,
      "Ġpoems": 5927,
      "å¿ĥåĴĮ": 5928,
      "Ġattend": 5929,
      "çļĦæ¸¸": 5930,
      "Ġside": 5931,
      "ales": 5932,
      "Ġmentioned": 5933,
      "ĠAbs": 5934,
      "Ġhistorical": 5935,
      "Ġleft": 5936,
      "ä»¥ä¸ĭåĩłä¸ª": 5937,
      "åıĹæ¬¢è¿İ": 5938,
      "èıľåĵģ": 5939,
      "Ġremain": 5940,
      "æĩ": 5941,
      "Ġtours": 5942,
      "łéģĵ": 5943,
      "Ġerrors": 5944,
      "æľºåĪ¶": 5945,
      "æ¦": 5946,
      "æĤ£èĢħ": 5947,
      "more": 5948,
      "Ġexperts": 5949,
      "çļĦçłĶç©¶": 5950,
      "ç»ĵæĿŁ": 5951,
      "Ġwritten": 5952,
      "çłĶ": 5953,
      "Ġet": 5954,
      "input": 5955,
      "æ°Ķä½ĵ": 5956,
      "èļ": 5957,
      "æĥĬ": 5958,
      "Ġage": 5959,
      "éĩįå¤į": 5960,
      "å¼¹": 5961,
      "åŃ¤": 5962,
      "Ġsymptoms": 5963,
      "Ġbelief": 5964,
      "'d": 5965,
      "iol": 5966,
      "Ġ18": 5967,
      "åħħè¶³": 5968,
      "çıį": 5969,
      "forcement": 5970,
      "æĸĹ": 5971,
      "ªèĮĦ": 5972,
      "Ġ15": 5973,
      "ä¸Ģä¸ªäºº": 5974,
      "Ġapplic": 5975,
      "è´¥": 5976,
      "ä½įäºİ": 5977,
      "éĻ¤äºĨ": 5978,
      "=\"": 5979,
      "ä¸īè§Ĵ": 5980,
      "æĢĿç»´": 5981,
      "åį·": 5982,
      "Ġfru": 5983,
      "ĠCollabor": 5984,
      "Ġprim": 5985,
      "Ġrequired": 5986,
      "Ġwatch": 5987,
      "è°ĥåĳ³": 5988,
      "ç»ĵè®º": 5989,
      "ony": 5990,
      "Ġguide": 5991,
      "Ġmax": 5992,
      "ĠCould": 5993,
      "Ġadvent": 5994,
      "ĠOverall": 5995,
      "çļĦæĬķ": 5996,
      "Ġexper": 5997,
      "åĺ": 5998,
      "icial": 5999,
      "oster": 6000,
      "çļĦé¢ľèī²": 6001,
      "Ġoperations": 6002,
      "éĥģ": 6003,
      "Ġmoney": 6004,
      "ley": 6005,
      "cling": 6006,
      "Ġoil": 6007,
      "çļ®èĤ¤": 6008,
      "Ġge": 6009,
      "Ġbat": 6010,
      "ĠPh": 6011,
      "Ġsche": 6012,
      "Ġelectric": 6013,
      "vest": 6014,
      "Ġchain": 6015,
      "Ġcapabilities": 6016,
      "ird": 6017,
      "è¯ģæĺİ": 6018,
      "æľĢå¥½": 6019,
      "ivil": 6020,
      "Ġdepending": 6021,
      "Ġsave": 6022,
      "Ġpractical": 6023,
      "Ġcultures": 6024,
      "çĽ¸åºĶçļĦ": 6025,
      "sy": 6026,
      "çļĦç²": 6027,
      "Ġbehind": 6028,
      "æĹ¶éĹ´åĴĮ": 6029,
      "å¹ħ": 6030,
      "ĠAg": 6031,
      "Ġeffectiveness": 6032,
      "Ad": 6033,
      "ĠOf": 6034,
      "Ġanything": 6035,
      "å·§åħĭåĬĽ": 6036,
      "Ġmist": 6037,
      "Ġlanguages": 6038,
      "ĠMake": 6039,
      "å«": 6040,
      "æ£®": 6041,
      "ĠCont": 6042,
      "ĠAbsolutely": 6043,
      "Ġinvestment": 6044,
      "mat": 6045,
      "çļĦæķħäºĭ": 6046,
      "æ¬§": 6047,
      "Ġspeed": 6048,
      "çļĦæ¸©": 6049,
      "Ġcities": 6050,
      "åĨĻä½ľ": 6051,
      "Thanks": 6052,
      "Ġded": 6053,
      "åĪĨéħį": 6054,
      "Ġdark": 6055,
      "Ġsupporting": 6056,
      "å¹ķ": 6057,
      "ĠKe": 6058,
      "éĽ¶": 6059,
      "Ġsharing": 6060,
      "Ġhouse": 6061,
      "è®¤çŁ¥": 6062,
      "Ġsurrounding": 6063,
      "Ġreduced": 6064,
      "Ġfu": 6065,
      "Ġstor": 6066,
      "Ġabs": 6067,
      "Tom": 6068,
      "cent": 6069,
      "ĠEducation": 6070,
      "Ġthr": 6071,
      "ott": 6072,
      "ĠThat": 6073,
      "Ġhear": 6074,
      "ung": 6075,
      "Ġbeyond": 6076,
      "ĠCo": 6077,
      "room": 6078,
      "è¯ĹæŃĮ": 6079,
      "reme": 6080,
      "Ġlittle": 6081,
      "Ġgames": 6082,
      "ä¹ĭåĲİ": 6083,
      "éĥ½ä¼ļ": 6084,
      "è¯ŃéŁ³": 6085,
      "ç¬ĳ": 6086,
      "çī¹å®ļ": 6087,
      "ç¬¬ä¸Ģ": 6088,
      "Ġdepression": 6089,
      "Ġinnovation": 6090,
      "ĠFr": 6091,
      "Ġcomputer": 6092,
      "can": 6093,
      "å³°": 6094,
      "ç¼ĸåĨĻä¸Ģä¸ª": 6095,
      "Ġinternational": 6096,
      "Ġcancer": 6097,
      "åŃ¦èĢħ": 6098,
      "Ġdiscover": 6099,
      "het": 6100,
      "Ġcompos": 6101,
      "Ġrecy": 6102,
      "Ġ200": 6103,
      "åĲ«æľī": 6104,
      "çĹĽ": 6105,
      "ç¼ĵè§£": 6106,
      "Ġfrequ": 6107,
      "çĶ³": 6108,
      "ĠMar": 6109,
      "çļĦéĢīæĭ©": 6110,
      "Ġunt": 6111,
      "Ġregions": 6112,
      "Ġopin": 6113,
      "ĠGovernments": 6114,
      "æ¶Ĥ": 6115,
      "åĨħå¿ĥ": 6116,
      "ä¸ĬæľĢ": 6117,
      "ä»įçĦ¶": 6118,
      "lier": 6119,
      "æ³³": 6120,
      "äºĴçĽ¸": 6121,
      "ĠStud": 6122,
      "azon": 6123,
      "Ġarch": 6124,
      "Ġchem": 6125,
      "çļĦèĥ½åĬĽ": 6126,
      "çļĦä¸Ģä¸ª": 6127,
      "Ġap": 6128,
      "Ġred": 6129,
      "Ġwomen": 6130,
      "Ġprote": 6131,
      "Ġfinding": 6132,
      "å§»": 6133,
      "éĢĤå½ĵçļĦ": 6134,
      "Ġforward": 6135,
      "å¯¹è±¡": 6136,
      "Ġwait": 6137,
      "Ġconsidered": 6138,
      "dule": 6139,
      "backs": 6140,
      "Ġclinical": 6141,
      "åħ·å¤ĩ": 6142,
      "éº¦": 6143,
      "Ġongoing": 6144,
      "åĨĽ": 6145,
      "Ġfar": 6146,
      "åĴĮè°": 6147,
      "XXX": 6148,
      "Ġpolitical": 6149,
      "Ġcamer": 6150,
      "çļĦè¡Įä¸º": 6151,
      "æĦıå¤§åĪ©": 6152,
      "Ġapps": 6153,
      "åĩıè½»": 6154,
      "Ġreaders": 6155,
      "å©ļå§»": 6156,
      "æ°¸": 6157,
      "ores": 6158,
      "åħ¨éĿ¢": 6159,
      "ĠAfric": 6160,
      "Ġfavorite": 6161,
      "Ġmill": 6162,
      "Ġdang": 6163,
      "ĠStates": 6164,
      "åĢŁ": 6165,
      "å¯¿": 6166,
      "Ġlat": 6167,
      "è¿ĩåİ»": 6168,
      "Ġtruly": 6169,
      "åĽŀçŃĶéĹ®é¢ĺ": 6170,
      "Ġcogn": 6171,
      "ä»°": 6172,
      "ĠJapan": 6173,
      "izz": 6174,
      "çļĦæĿĲ": 6175,
      "xx": 6176,
      "é¢ĺçĽ®": 6177,
      "ription": 6178,
      "éĤ£äºĽ": 6179,
      "Ġbudget": 6180,
      "Ġvast": 6181,
      "éļĲç§ģ": 6182,
      "Ġpolicymakers": 6183,
      "è¿ĺéľĢè¦ģ": 6184,
      "å¹¶æıĲä¾Ľ": 6185,
      "Ġsweet": 6186,
      "Ġgeneral": 6187,
      "æ»¤": 6188,
      "Ġbirds": 6189,
      "Ġplastic": 6190,
      "Ċĉ": 6191,
      "åĪº": 6192,
      "mental": 6193,
      "Ġinclusive": 6194,
      "Ġtopics": 6195,
      "Ġslow": 6196,
      "ä½łèĥ½": 6197,
      "è¶³å¤ŁçļĦ": 6198,
      "è§Ĩè§ī": 6199,
      "ww": 6200,
      "Ġä½¿çĶ¨": 6201,
      "æī¹": 6202,
      "æ¦Ĥå¿µ": 6203,
      "é£ŁçĶ¨": 6204,
      "èĢ³": 6205,
      "cks": 6206,
      "Ġfraud": 6207,
      "Ġingredients": 6208,
      "Ġfasc": 6209,
      "åĮĹäº¬": 6210,
      "Ġfr": 6211,
      "Ġmanufacturing": 6212,
      "Ġä½ľä¸º": 6213,
      "Ġbeach": 6214,
      "é¡¿": 6215,
      "erious": 6216,
      "å¤ĸè§Ĥ": 6217,
      "é¢Ħéĺ²": 6218,
      "æĿ¥èĩª": 6219,
      "èĤĮèĤī": 6220,
      "Ġdays": 6221,
      "Ġassign": 6222,
      "Ġadvant": 6223,
      "Ġteams": 6224,
      "é¢Ĺ": 6225,
      "nown": 6226,
      "ĠPo": 6227,
      "}{": 6228,
      "Ġminut": 6229,
      "itions": 6230,
      "Ġeasily": 6231,
      "ĠBl": 6232,
      "name": 6233,
      "åŃ¦æł¡": 6234,
      "Ġresponsibility": 6235,
      "åıĳæĮ¥": 6236,
      "Ġsensitive": 6237,
      "çŃīäºİ": 6238,
      "cious": 6239,
      "Ġsou": 6240,
      "å±ı": 6241,
      "Ġrich": 6242,
      "å½ĵçĦ¶": 6243,
      "man": 6244,
      "Ġinterpret": 6245,
      "24": 6246,
      "Ġshows": 6247,
      "èģĮåľº": 6248,
      "Ġfall": 6249,
      "è½½": 6250,
      "ä¸°å¯ĮçļĦ": 6251,
      "('": 6252,
      "ä¿®æĶ¹": 6253,
      "æĽ´æį¢": 6254,
      "Al": 6255,
      "åı¯èĥ½æĺ¯": 6256,
      "Ġrate": 6257,
      "Ġprotecting": 6258,
      "fit": 6259,
      "Ġ50": 6260,
      "Ġmovement": 6261,
      "è§Ī": 6262,
      "Ġemployee": 6263,
      "Ġdisord": 6264,
      "åĪĽæĦı": 6265,
      "äº§åĵģçļĦ": 6266,
      "æľĿ": 6267,
      "ĊĠĠĠĠĠĠĠĠĠĠĠĠĠĠĠ": 6268,
      "Ġpred": 6269,
      "Ġoffering": 6270,
      "åįģåĪĨ": 6271,
      "èĢĮä¸įæĺ¯": 6272,
      "Thank": 6273,
      "æĽ¾": 6274,
      "Ġelements": 6275,
      "ç²Ĵ": 6276,
      "Ġcourses": 6277,
      "Ġintegrated": 6278,
      "ĠCar": 6279,
      "agraph": 6280,
      "åŁºåĽł": 6281,
      "Ġinstead": 6282,
      "èĦ±": 6283,
      "åı¦ä¸Ģä¸ª": 6284,
      "å¯Ĩçłģ": 6285,
      "Ġallowed": 6286,
      "éĿ¢åĮħ": 6287,
      "çķªèĮĦ": 6288,
      "åĴĮåıĳå±ķ": 6289,
      "å°ģ": 6290,
      "Ġconnection": 6291,
      "åľ¨ä¸Ģä¸ª": 6292,
      "Ġuseful": 6293,
      "è¯Ńåı¥": 6294,
      "åĪĨå¸ĥ": 6295,
      "è¡¨æ¼Ķ": 6296,
      "æľīæĹ¶": 6297,
      "çļĦæĹħ": 6298,
      "çļĦæĢ»": 6299,
      "Ġfashion": 6300,
      "èĭ¦": 6301,
      "è¦ģæ³¨æĦı": 6302,
      "çĶŁç´ł": 6303,
      "Ġnutri": 6304,
      "èĩªè¡Į": 6305,
      "çļĦçĭ": 6306,
      "çĲĨè§£åĴĮ": 6307,
      "Ġcat": 6308,
      "æľºåĻ¨åŃ¦ä¹ł": 6309,
      "Ġexhib": 6310,
      "åĴĮæľįåĬ¡": 6311,
      "frac": 6312,
      "epend": 6313,
      "Ġimpacted": 6314,
      "Ġut": 6315,
      "æķ°ç»Ħ": 6316,
      "ĠWorld": 6317,
      "Ġanswer": 6318,
      "erse": 6319,
      "éª¨": 6320,
      "Ġartists": 6321,
      "åŃ©åŃĲçļĦ": 6322,
      "ä»Ķ": 6323,
      "çĻ»": 6324,
      "ĠAre": 6325,
      "Ġcool": 6326,
      "Ġcognitive": 6327,
      "åĲĦä¸ª": 6328,
      "like": 6329,
      "å©´åĦ¿": 6330,
      "åĪĹåĩº": 6331,
      "å¹»": 6332,
      "ront": 6333,
      "å®¶éķ¿": 6334,
      "ç¼ºä¹ı": 6335,
      "Ġcyber": 6336,
      "ilt": 6337,
      "Ġcapture": 6338,
      "åĹ": 6339,
      "åľ¨äºİ": 6340,
      "Ġthreats": 6341,
      "åĴĮç¤¾ä¼ļ": 6342,
      "Ġcells": 6343,
      "æ¸ħåįķ": 6344,
      "ĠVis": 6345,
      "æİī": 6346,
      "Ġhol": 6347,
      "åŃĲçļĦ": 6348,
      "Ch": 6349,
      "èĿ": 6350,
      "Ġsaid": 6351,
      "Ġdream": 6352,
      "unch": 6353,
      "une": 6354,
      "ĠDon": 6355,
      "å®¶äºº": 6356,
      "ç±į": 6357,
      "æĦŁåĴĮ": 6358,
      "Ġexperienced": 6359,
      "çļĦéĩįè¦ģæĢ§": 6360,
      "å¼ĥ": 6361,
      "ump": 6362,
      "éĺĲ": 6363,
      "Ġhabitat": 6364,
      "è¢ĭ": 6365,
      "Ġjo": 6366,
      "ç®Ģæ´ģ": 6367,
      "Ġbur": 6368,
      "Ġvisitors": 6369,
      "éĽħ": 6370,
      "çļĦçŁ¥": 6371,
      "Ġentire": 6372,
      "è®²è¿°": 6373,
      "äºĨä¸ĢäºĽ": 6374,
      "åįıä½ľ": 6375,
      "ĠBus": 6376,
      "å°¾": 6377,
      "çļĦæķĻ": 6378,
      "olog": 6379,
      "Ġsigns": 6380,
      "Ġspeaker": 6381,
      "çļĦéŁ³ä¹Ĳ": 6382,
      "Ġnovel": 6383,
      "å±ħæ°ĳ": 6384,
      "çļĦåıĺåĮĸ": 6385,
      "å°½éĩı": 6386,
      "Ġspirit": 6387,
      "å®Įç¾İ": 6388,
      "è´·": 6389,
      "å¿ħè¦ģçļĦ": 6390,
      "ief": 6391,
      "ç¤ºä¾ĭ": 6392,
      "Ġdiv": 6393,
      "æķ´æķ°": 6394,
      "Ġeconomy": 6395,
      "Ġethically": 6396,
      "éĻĪ": 6397,
      "Ġschools": 6398,
      "Ġnetworks": 6399
    },
    "merges": [
      [
        "Ġ",
        "t"
      ],
      [
        "Ġ",
        "a"
      ],
      [
        "i",
        "n"
      ],
      [
        "h",
        "e"
      ],
      [
        "r",
        "e"
      ],
      [
        "ï",
        "¼"
      ],
      [
        "ä",
        "¸"
      ],
      [
        "o",
        "n"
      ],
      [
        "a",
        "t"
      ],
      [
        "ç",
        "ļ"
      ],
      [
        "çļ",
        "Ħ"
      ],
      [
        "ï¼",
        "Į"
      ],
      [
        "Ġ",
        "s"
      ],
      [
        "Ġ",
        "c"
      ],
      [
        "n",
        "d"
      ],
      [
        "ã",
        "Ģ"
      ],
      [
        "e",
        "r"
      ],
      [
        "Ġt",
        "he"
      ],
      [
        "e",
        "s"
      ],
      [
        "e",
        "n"
      ],
      [
        "o",
        "r"
      ],
      [
        "a",
        "n"
      ],
      [
        "Ġa",
        "nd"
      ],
      [
        "in",
        "g"
      ],
      [
        "Ġ",
        "p"
      ],
      [
        "i",
        "t"
      ],
      [
        "a",
        "l"
      ],
      [
        "ãĢ",
        "Ĥ"
      ],
      [
        "Ġ",
        "o"
      ],
      [
        "Ġ",
        "w"
      ],
      [
        "ä",
        "»"
      ],
      [
        "Ġt",
        "o"
      ],
      [
        "i",
        "s"
      ],
      [
        "o",
        "u"
      ],
      [
        "Ġ",
        "m"
      ],
      [
        "ä",
        "º"
      ],
      [
        "Ġ",
        "in"
      ],
      [
        "Ġ",
        "f"
      ],
      [
        "Ġ",
        "b"
      ],
      [
        "e",
        "d"
      ],
      [
        "i",
        "on"
      ],
      [
        "å",
        "ı"
      ],
      [
        "i",
        "c"
      ],
      [
        "Ġ",
        "d"
      ],
      [
        "Ġo",
        "f"
      ],
      [
        "l",
        "e"
      ],
      [
        "a",
        "r"
      ],
      [
        "r",
        "o"
      ],
      [
        "Ġ",
        "Ġ"
      ],
      [
        "å",
        "ħ"
      ],
      [
        "en",
        "t"
      ],
      [
        "æ",
        "ľ"
      ],
      [
        "Ġ",
        "e"
      ],
      [
        "å",
        "Ĵ"
      ],
      [
        "è",
        "¿"
      ],
      [
        "ä",
        "½"
      ],
      [
        "åĴ",
        "Į"
      ],
      [
        "æ",
        "Ī"
      ],
      [
        "å",
        "®"
      ],
      [
        "å",
        "Ī"
      ],
      [
        "v",
        "e"
      ],
      [
        "u",
        "s"
      ],
      [
        "Ġ",
        "re"
      ],
      [
        "Ġ",
        "h"
      ],
      [
        "Ġt",
        "h"
      ],
      [
        "a",
        "s"
      ],
      [
        "c",
        "t"
      ],
      [
        "ç",
        "Ķ"
      ],
      [
        "o",
        "m"
      ],
      [
        "å",
        "ľ"
      ],
      [
        "å",
        "¤"
      ],
      [
        "æ",
        "ĺ"
      ],
      [
        "å",
        "Ĭ"
      ],
      [
        "å",
        "Ĳ"
      ],
      [
        "ä¸",
        "Ģ"
      ],
      [
        "i",
        "m"
      ],
      [
        "è",
        "¯"
      ],
      [
        "æ",
        "ĸ"
      ],
      [
        "at",
        "ion"
      ],
      [
        "l",
        "o"
      ],
      [
        "ç",
        "»"
      ],
      [
        "Ġb",
        "e"
      ],
      [
        "ãĢ",
        "ģ"
      ],
      [
        "i",
        "d"
      ],
      [
        "Ġc",
        "an"
      ],
      [
        "i",
        "l"
      ],
      [
        "æĺ",
        "¯"
      ],
      [
        "ä",
        "¹"
      ],
      [
        "è",
        "®"
      ],
      [
        "Ġ",
        "A"
      ],
      [
        "Ġth",
        "at"
      ],
      [
        "Ġ",
        "T"
      ],
      [
        "ä»",
        "¥"
      ],
      [
        "c",
        "h"
      ],
      [
        "Ġ",
        "y"
      ],
      [
        "c",
        "e"
      ],
      [
        "ï¼",
        "ļ"
      ],
      [
        "o",
        "t"
      ],
      [
        "er",
        "s"
      ],
      [
        "Ġ",
        "n"
      ],
      [
        "é",
        "Ģ"
      ],
      [
        "r",
        "a"
      ],
      [
        "å",
        "°"
      ],
      [
        "Ġ",
        "g"
      ],
      [
        "Ġy",
        "ou"
      ],
      [
        "å",
        "Ń"
      ],
      [
        "Ġp",
        "ro"
      ],
      [
        "e",
        "t"
      ],
      [
        "å",
        "º"
      ],
      [
        "åľ",
        "¨"
      ],
      [
        "l",
        "y"
      ],
      [
        "Ġ",
        "is"
      ],
      [
        "ä¸",
        "ª"
      ],
      [
        "Ġ",
        "l"
      ],
      [
        "u",
        "r"
      ],
      [
        "Ġf",
        "or"
      ],
      [
        "åı",
        "¯"
      ],
      [
        "é",
        "ĩ"
      ],
      [
        "s",
        "t"
      ],
      [
        "çļĦ",
        "æ"
      ],
      [
        "u",
        "t"
      ],
      [
        "Ġ",
        "he"
      ],
      [
        "i",
        "f"
      ],
      [
        "ĥ",
        "½"
      ],
      [
        "ä",
        "¼"
      ],
      [
        "Ġ",
        "I"
      ],
      [
        "è",
        "¡"
      ],
      [
        "i",
        "r"
      ],
      [
        "it",
        "h"
      ],
      [
        "å",
        "¹"
      ],
      [
        "Ġa",
        "re"
      ],
      [
        "i",
        "g"
      ],
      [
        "Ġs",
        "t"
      ],
      [
        "e",
        "l"
      ],
      [
        "o",
        "l"
      ],
      [
        "å",
        "¸"
      ],
      [
        "u",
        "l"
      ],
      [
        "æ",
        "Ŀ"
      ],
      [
        "æĪ",
        "ĳ"
      ],
      [
        "Ġ",
        "on"
      ],
      [
        "è",
        "¦"
      ],
      [
        "æľ",
        "ī"
      ],
      [
        "æ",
        "Ĺ"
      ],
      [
        "å",
        "¯"
      ],
      [
        "è",
        "§"
      ],
      [
        "è¦",
        "ģ"
      ],
      [
        "Ġ",
        "us"
      ],
      [
        "a",
        "y"
      ],
      [
        "æ",
        "ķ"
      ],
      [
        "ç",
        "ī"
      ],
      [
        "o",
        "w"
      ],
      [
        "m",
        "ent"
      ],
      [
        "çĶ",
        "¨"
      ],
      [
        "es",
        "s"
      ],
      [
        "ä¸",
        "Ń"
      ],
      [
        "ä»",
        "¬"
      ],
      [
        "äº",
        "º"
      ],
      [
        "å",
        "ĩ"
      ],
      [
        "Ġe",
        "x"
      ],
      [
        "ĠĠ",
        "ĠĠ"
      ],
      [
        "å",
        "Ľ"
      ],
      [
        "å",
        "Į"
      ],
      [
        "å",
        "¼"
      ],
      [
        "Ġc",
        "on"
      ],
      [
        "s",
        "e"
      ],
      [
        "è",
        "ĥ½"
      ],
      [
        "ç",
        "İ"
      ],
      [
        "Ġa",
        "n"
      ],
      [
        "Ġw",
        "ith"
      ],
      [
        "ä¸",
        "º"
      ],
      [
        "at",
        "e"
      ],
      [
        "i",
        "v"
      ],
      [
        "a",
        "m"
      ],
      [
        "Ġa",
        "s"
      ],
      [
        "u",
        "re"
      ],
      [
        "è¿",
        "Ļ"
      ],
      [
        "å",
        "Ĩ"
      ],
      [
        "ç",
        "Ń"
      ],
      [
        "Ġ",
        "or"
      ],
      [
        "å",
        "·"
      ],
      [
        "Ġa",
        "l"
      ],
      [
        "i",
        "es"
      ],
      [
        "ç",
        "§"
      ],
      [
        "Ġ",
        "im"
      ],
      [
        "æ",
        "Ģ"
      ],
      [
        "v",
        "er"
      ],
      [
        "a",
        "b"
      ],
      [
        "äº",
        "Ĩ"
      ],
      [
        "Ġs",
        "u"
      ],
      [
        "Ġd",
        "e"
      ],
      [
        "g",
        "e"
      ],
      [
        "t",
        "h"
      ],
      [
        "åı¯",
        "ä»¥"
      ],
      [
        "è",
        "Ģ"
      ],
      [
        "ä¸",
        "į"
      ],
      [
        "å",
        "¾"
      ],
      [
        "ĠA",
        "I"
      ],
      [
        "Ġ",
        "en"
      ],
      [
        "é",
        "Ĺ"
      ],
      [
        "æ",
        "ī"
      ],
      [
        "a",
        "k"
      ],
      [
        "i",
        "ve"
      ],
      [
        "Ġm",
        "o"
      ],
      [
        "å",
        "¥"
      ],
      [
        "é",
        "Ŀ"
      ],
      [
        "ç",
        "Ľ"
      ],
      [
        "it",
        "y"
      ],
      [
        "ä",
        "¿"
      ],
      [
        "u",
        "n"
      ],
      [
        "è",
        "´"
      ],
      [
        "å",
        "į"
      ],
      [
        "Ġ",
        "it"
      ],
      [
        "Ġim",
        "p"
      ],
      [
        "e",
        "ct"
      ],
      [
        "æ",
        "ł"
      ],
      [
        "å",
        "½"
      ],
      [
        "è",
        "ĩ"
      ],
      [
        "é",
        "¢"
      ],
      [
        "å",
        "ĵ"
      ],
      [
        "æ",
        "³"
      ],
      [
        "or",
        "t"
      ],
      [
        "a",
        "d"
      ],
      [
        "æ",
        "ŀ"
      ],
      [
        "e",
        "m"
      ],
      [
        "Ġc",
        "om"
      ],
      [
        "å",
        "¦"
      ],
      [
        "he",
        "r"
      ],
      [
        "e",
        "re"
      ],
      [
        "Ġ",
        "S"
      ],
      [
        "i",
        "al"
      ],
      [
        "Ġ",
        "C"
      ],
      [
        "ĠT",
        "he"
      ],
      [
        "ç",
        "Ĳ"
      ],
      [
        "çĶ",
        "Ł"
      ],
      [
        "æ",
        "Ħ"
      ],
      [
        "p",
        "p"
      ],
      [
        "æ",
        "Ń"
      ],
      [
        "æĸ",
        "¹"
      ],
      [
        "q",
        "u"
      ],
      [
        "Ġw",
        "h"
      ],
      [
        "å¦",
        "Ĥ"
      ],
      [
        "é",
        "ľ"
      ],
      [
        "an",
        "t"
      ],
      [
        "Ġ",
        "le"
      ],
      [
        "Ġ",
        "v"
      ],
      [
        "æ",
        "ĭ"
      ],
      [
        "æ",
        "Ĭ"
      ],
      [
        "us",
        "t"
      ],
      [
        "æĹ",
        "¶"
      ],
      [
        "çŃ",
        "ī"
      ],
      [
        "å",
        "ĳ"
      ],
      [
        "å¯",
        "¹"
      ],
      [
        "t",
        "er"
      ],
      [
        "l",
        "d"
      ],
      [
        "è¡",
        "Į"
      ],
      [
        "Ġc",
        "h"
      ],
      [
        "u",
        "d"
      ],
      [
        "éľ",
        "Ģ"
      ],
      [
        "æ",
        "°"
      ],
      [
        "æĪ",
        "Ĳ"
      ],
      [
        "Ġ",
        "|"
      ],
      [
        "a",
        "c"
      ],
      [
        "a",
        "in"
      ],
      [
        "i",
        "z"
      ],
      [
        "æ",
        "ı"
      ],
      [
        "ion",
        "s"
      ],
      [
        "Ġh",
        "a"
      ],
      [
        "æ",
        "Ľ"
      ],
      [
        "-",
        "-"
      ],
      [
        "æĿ",
        "¥"
      ],
      [
        "om",
        "e"
      ],
      [
        "å",
        "¿"
      ],
      [
        "'",
        "s"
      ],
      [
        "Ġn",
        "e"
      ],
      [
        "es",
        "t"
      ],
      [
        "ä",
        "¾"
      ],
      [
        "u",
        "m"
      ],
      [
        "åĪ",
        "°"
      ],
      [
        "åľ",
        "°"
      ],
      [
        "is",
        "t"
      ],
      [
        "â",
        "Ģ"
      ],
      [
        "çī",
        "©"
      ],
      [
        "ä¸Ģ",
        "ä¸ª"
      ],
      [
        "l",
        "p"
      ],
      [
        "æ",
        "İ"
      ],
      [
        "èĩ",
        "ª"
      ],
      [
        "Ġhe",
        "lp"
      ],
      [
        "Ġthe",
        "ir"
      ],
      [
        "æ",
        "Ķ"
      ],
      [
        "ä½",
        "ľ"
      ],
      [
        "ä¼",
        "ļ"
      ],
      [
        "æ",
        "Į"
      ],
      [
        "æĪĳ",
        "ä»¬"
      ],
      [
        "n",
        "t"
      ],
      [
        "äº",
        "İ"
      ],
      [
        "åĪ",
        "Ĩ"
      ],
      [
        "re",
        "s"
      ],
      [
        "p",
        "e"
      ],
      [
        "åĩ",
        "º"
      ],
      [
        "id",
        "e"
      ],
      [
        "æ",
        "ĥ"
      ],
      [
        "Ġ",
        "H"
      ],
      [
        "è",
        "¾"
      ],
      [
        "Ġ",
        "M"
      ],
      [
        "f",
        "f"
      ],
      [
        "æ",
        "¯"
      ],
      [
        "o",
        "d"
      ],
      [
        "ic",
        "al"
      ],
      [
        "Ġw",
        "or"
      ],
      [
        "ä¸",
        "Ĭ"
      ],
      [
        "a",
        "re"
      ],
      [
        "æĽ",
        "´"
      ],
      [
        "Ġyou",
        "r"
      ],
      [
        "ä¸",
        "ĭ"
      ],
      [
        "è",
        "µ"
      ],
      [
        "ation",
        "s"
      ],
      [
        "æķ",
        "°"
      ],
      [
        "Ġt",
        "e"
      ],
      [
        "å",
        "İ"
      ],
      [
        "çĲ",
        "Ĩ"
      ],
      [
        "ĠT",
        "h"
      ],
      [
        "è¿",
        "ĩ"
      ],
      [
        "å¹",
        "¶"
      ],
      [
        "d",
        "u"
      ],
      [
        "éĿ",
        "¢"
      ],
      [
        "Ġa",
        "d"
      ],
      [
        "il",
        "l"
      ],
      [
        "æ",
        "µ"
      ],
      [
        "å¥",
        "½"
      ],
      [
        "o",
        "c"
      ],
      [
        "a",
        "ct"
      ],
      [
        "éľĢ",
        "è¦ģ"
      ],
      [
        "ä»",
        "ĸ"
      ],
      [
        "å",
        "±"
      ],
      [
        "Ġ",
        "r"
      ],
      [
        "Ġmo",
        "re"
      ],
      [
        "åŃ",
        "¦"
      ],
      [
        "ç",
        "®"
      ],
      [
        "ig",
        "h"
      ],
      [
        "äº",
        "Ľ"
      ],
      [
        "Ġ",
        "B"
      ],
      [
        "åĬ",
        "¨"
      ],
      [
        "åĵ",
        "ģ"
      ],
      [
        "è",
        "ī"
      ],
      [
        "p",
        "le"
      ],
      [
        "Ġin",
        "c"
      ],
      [
        "åĲ",
        "Į"
      ],
      [
        "Ġex",
        "p"
      ],
      [
        "ou",
        "ld"
      ],
      [
        "ä½",
        "ł"
      ],
      [
        "æ",
        "į"
      ],
      [
        "æı",
        "Ĳ"
      ],
      [
        "å¤",
        "§"
      ],
      [
        "çİ",
        "°"
      ],
      [
        "p",
        "t"
      ],
      [
        "Ġ",
        "P"
      ],
      [
        "al",
        "l"
      ],
      [
        "åĬ",
        "ł"
      ],
      [
        "ç§",
        "į"
      ],
      [
        "Ġs",
        "e"
      ],
      [
        "åĬ",
        "Ľ"
      ],
      [
        "ou",
        "t"
      ],
      [
        "Ġha",
        "ve"
      ],
      [
        "ç",
        "º"
      ],
      [
        "ä½",
        "ĵ"
      ],
      [
        "Ġpro",
        "v"
      ],
      [
        "åĮ",
        "ĸ"
      ],
      [
        "å¤",
        "ļ"
      ],
      [
        "å®",
        "ļ"
      ],
      [
        "Ġus",
        "ed"
      ],
      [
        "éĢ",
        "ļ"
      ],
      [
        "c",
        "c"
      ],
      [
        "è¿",
        "Ľ"
      ],
      [
        "æ",
        "´"
      ],
      [
        "Ġs",
        "h"
      ],
      [
        "Ġa",
        "b"
      ],
      [
        "o",
        "s"
      ],
      [
        "Ġre",
        "s"
      ],
      [
        "ĠTh",
        "is"
      ],
      [
        "ç",
        "¨"
      ],
      [
        "æĢ",
        "§"
      ],
      [
        "a",
        "ge"
      ],
      [
        "r",
        "i"
      ],
      [
        "æ",
        "¸"
      ],
      [
        "ab",
        "le"
      ],
      [
        "åŃ",
        "Ĳ"
      ],
      [
        "Ġb",
        "y"
      ],
      [
        "åı",
        "ĳ"
      ],
      [
        "éĩ",
        "ı"
      ],
      [
        "åº",
        "Ķ"
      ],
      [
        "Ġ",
        "lo"
      ],
      [
        "ä½",
        "¿"
      ],
      [
        "åħ",
        "¶"
      ],
      [
        "é",
        "«"
      ],
      [
        "é",
        "Ļ"
      ],
      [
        "é«",
        "ĺ"
      ],
      [
        "åº",
        "¦"
      ],
      [
        "è§",
        "£"
      ],
      [
        "é",
        "£"
      ],
      [
        "å°",
        "Ĩ"
      ],
      [
        "æ³",
        "ķ"
      ],
      [
        "a",
        "nd"
      ],
      [
        "ä¿",
        "Ŀ"
      ],
      [
        "an",
        "s"
      ],
      [
        "f",
        "or"
      ],
      [
        "ro",
        "m"
      ],
      [
        "re",
        "at"
      ],
      [
        "Ġp",
        "l"
      ],
      [
        "çļĦ",
        "ç"
      ],
      [
        "å¸",
        "¸"
      ],
      [
        "è",
        "½"
      ],
      [
        "Ġw",
        "e"
      ],
      [
        "è¡",
        "¨"
      ],
      [
        "ak",
        "e"
      ],
      [
        "æĪ",
        "ĸ"
      ],
      [
        "é¢",
        "ĺ"
      ],
      [
        "å",
        "Ł"
      ],
      [
        "Ġm",
        "e"
      ],
      [
        "æĸ",
        "ĩ"
      ],
      [
        "t",
        "her"
      ],
      [
        "k",
        "e"
      ],
      [
        "å®",
        "¶"
      ],
      [
        "åĲ",
        "Ī"
      ],
      [
        "æľ",
        "Ģ"
      ],
      [
        "in",
        "e"
      ],
      [
        "Ġs",
        "ome"
      ],
      [
        "ç",
        "±"
      ],
      [
        "éĩ",
        "į"
      ],
      [
        "æŀ",
        "ľ"
      ],
      [
        "Ġ",
        "W"
      ],
      [
        "Ġ",
        "E"
      ],
      [
        "é",
        "ĺ"
      ],
      [
        "ou",
        "r"
      ],
      [
        "r",
        "ou"
      ],
      [
        "ç",
        "Ĥ"
      ],
      [
        "æ",
        "±"
      ],
      [
        "åħ",
        "³"
      ],
      [
        "Ġin",
        "t"
      ],
      [
        "an",
        "ce"
      ],
      [
        "ä¹",
        "Ł"
      ],
      [
        "é",
        "ģ"
      ],
      [
        "ĠĠ",
        "Ġ"
      ],
      [
        "å®",
        "ĥ"
      ],
      [
        "a",
        "g"
      ],
      [
        "æ",
        "¬"
      ],
      [
        "0",
        "0"
      ],
      [
        "è",
        "°"
      ],
      [
        "ul",
        "t"
      ],
      [
        "y",
        "st"
      ],
      [
        "éĹ",
        "´"
      ],
      [
        "ç",
        "³"
      ],
      [
        "Ġt",
        "r"
      ],
      [
        "p",
        "l"
      ],
      [
        "ar",
        "t"
      ],
      [
        "æĦ",
        "Ł"
      ],
      [
        "æ",
        "Ĥ"
      ],
      [
        "at",
        "a"
      ],
      [
        "Ġ",
        "F"
      ],
      [
        "for",
        "m"
      ],
      [
        "è®",
        "¡"
      ],
      [
        "Ġf",
        "rom"
      ],
      [
        "Ġ",
        "D"
      ],
      [
        "éĹ",
        "®"
      ],
      [
        "igh",
        "t"
      ],
      [
        "c",
        "es"
      ],
      [
        "æį",
        "®"
      ],
      [
        "lo",
        "p"
      ],
      [
        "ä¹",
        "ĭ"
      ],
      [
        "Ġf",
        "e"
      ],
      [
        "å",
        "ģ"
      ],
      [
        "ve",
        "lop"
      ],
      [
        "Ġ",
        "1"
      ],
      [
        "åĽ",
        "ł"
      ],
      [
        "k",
        "s"
      ],
      [
        "æ",
        "²"
      ],
      [
        "Ġ",
        "u"
      ],
      [
        "å°",
        "ı"
      ],
      [
        "yst",
        "em"
      ],
      [
        "Ġd",
        "is"
      ],
      [
        "Ġ",
        "R"
      ],
      [
        "g",
        "y"
      ],
      [
        "å·",
        "¥"
      ],
      [
        "ç¨",
        "ĭ"
      ],
      [
        "å",
        "¢"
      ],
      [
        "en",
        "ce"
      ],
      [
        "è",
        "Ĥ"
      ],
      [
        "ç",
        "¡"
      ],
      [
        "Ġt",
        "ra"
      ],
      [
        "å",
        "»"
      ],
      [
        "åħ",
        "¥"
      ],
      [
        "ig",
        "n"
      ],
      [
        "al",
        "th"
      ],
      [
        "Ġsu",
        "ch"
      ],
      [
        "a",
        "ch"
      ],
      [
        "æ",
        "Ļ"
      ],
      [
        "ar",
        "n"
      ],
      [
        "Ġd",
        "ata"
      ],
      [
        "è",
        "¶"
      ],
      [
        "å®",
        "ŀ"
      ],
      [
        "s",
        "o"
      ],
      [
        "Ġde",
        "velop"
      ],
      [
        "ç",
        "¤"
      ],
      [
        "Ġa",
        "cc"
      ],
      [
        "as",
        "t"
      ],
      [
        "èĢ",
        "Į"
      ],
      [
        "Ġ",
        "\""
      ],
      [
        "Ġo",
        "ther"
      ],
      [
        "å»",
        "º"
      ],
      [
        "Ġe",
        "ff"
      ],
      [
        "ç",
        "«"
      ],
      [
        "Ġm",
        "an"
      ],
      [
        "åħ",
        "¬"
      ],
      [
        "å",
        "Ģ"
      ],
      [
        "ç",
        "Ħ"
      ],
      [
        "m",
        "s"
      ],
      [
        "å¼",
        "ı"
      ],
      [
        "èī",
        "²"
      ],
      [
        "å¾",
        "Ĺ"
      ],
      [
        "if",
        "ic"
      ],
      [
        "Ġ",
        "j"
      ],
      [
        "Ġ",
        "ro"
      ],
      [
        "Ġh",
        "as"
      ],
      [
        "ch",
        "n"
      ],
      [
        "o",
        "lo"
      ],
      [
        "åĪ",
        "¶"
      ],
      [
        "è",
        "Ĭ"
      ],
      [
        "ä½¿",
        "çĶ¨"
      ],
      [
        "ou",
        "s"
      ],
      [
        "u",
        "al"
      ],
      [
        "Ġa",
        "t"
      ],
      [
        "Ġe",
        "m"
      ],
      [
        "el",
        "l"
      ],
      [
        "Ġs",
        "ystem"
      ],
      [
        "Ġhe",
        "alth"
      ],
      [
        "it",
        "ies"
      ],
      [
        "Ġex",
        "am"
      ],
      [
        "i",
        "b"
      ],
      [
        "é",
        "Ķ"
      ],
      [
        "Ġab",
        "out"
      ],
      [
        "äº",
        "§"
      ],
      [
        "åĲ",
        "İ"
      ],
      [
        "æĦ",
        "ı"
      ],
      [
        "ç±",
        "»"
      ],
      [
        "Ġp",
        "re"
      ],
      [
        "æĤ",
        "¨"
      ],
      [
        "Ġal",
        "so"
      ],
      [
        "ent",
        "s"
      ],
      [
        "Ġin",
        "d"
      ],
      [
        "in",
        "d"
      ],
      [
        "éĢ",
        "Ĥ"
      ],
      [
        "Ġte",
        "chn"
      ],
      [
        "res",
        "s"
      ],
      [
        "æĥ",
        "ħ"
      ],
      [
        "éĹ®",
        "é¢ĺ"
      ],
      [
        "Ġus",
        "e"
      ],
      [
        "ï¼",
        "Ł"
      ],
      [
        "Ġinc",
        "l"
      ],
      [
        "Ġs",
        "pe"
      ],
      [
        "ic",
        "h"
      ],
      [
        "p",
        "s"
      ],
      [
        "æľ",
        "º"
      ],
      [
        "Ġthe",
        "y"
      ],
      [
        "i",
        "e"
      ],
      [
        "Ġh",
        "ow"
      ],
      [
        "Ġwor",
        "k"
      ],
      [
        "ä¸",
        "ļ"
      ],
      [
        "ç",
        "´"
      ],
      [
        "Ġimp",
        "ro"
      ],
      [
        "Ġle",
        "arn"
      ],
      [
        "æĸ",
        "°"
      ],
      [
        "çĤ",
        "¹"
      ],
      [
        "Ġcon",
        "t"
      ],
      [
        "ar",
        "d"
      ],
      [
        "çĦ",
        "¶"
      ],
      [
        "æľ",
        "¬"
      ],
      [
        "ç³",
        "»"
      ],
      [
        "ç¡",
        "®"
      ],
      [
        "è®",
        "¾"
      ],
      [
        "åħ",
        "·"
      ],
      [
        "éĢ",
        "ī"
      ],
      [
        "èĢ",
        "ħ"
      ],
      [
        "é",
        "ħ"
      ],
      [
        "g",
        "h"
      ],
      [
        "_",
        "_"
      ],
      [
        "Ġn",
        "ot"
      ],
      [
        "ç",
        "ľ"
      ],
      [
        "çĽ",
        "¸"
      ],
      [
        "Ġprov",
        "ide"
      ],
      [
        "å",
        "ī"
      ],
      [
        "ion",
        "al"
      ],
      [
        "Ġen",
        "s"
      ],
      [
        "ä¸",
        "İ"
      ],
      [
        "è´",
        "¨"
      ],
      [
        "ent",
        "ial"
      ],
      [
        "ç»",
        "ı"
      ],
      [
        "å¿",
        "ĥ"
      ],
      [
        "an",
        "g"
      ],
      [
        "æŃ",
        "¤"
      ],
      [
        "e",
        "nd"
      ],
      [
        "Ġp",
        "o"
      ],
      [
        "è¿Ľ",
        "è¡Į"
      ],
      [
        "ic",
        "e"
      ],
      [
        "Ġ",
        "-"
      ],
      [
        "Ġw",
        "ay"
      ],
      [
        "å·",
        "±"
      ],
      [
        "Ġ",
        "2"
      ],
      [
        "im",
        "e"
      ],
      [
        "ç",
        "½"
      ],
      [
        "èĩª",
        "å·±"
      ],
      [
        "Ġ",
        "un"
      ],
      [
        "b",
        "ot"
      ],
      [
        "Ġincl",
        "ud"
      ],
      [
        "at",
        "ed"
      ],
      [
        "æ°",
        "´"
      ],
      [
        "é",
        "ķ"
      ],
      [
        "æĮ",
        "ģ"
      ],
      [
        "ä»",
        "£"
      ],
      [
        "é",
        "¡"
      ],
      [
        "æī",
        "Ģ"
      ],
      [
        "ç",
        "Ŀ"
      ],
      [
        "pp",
        "ort"
      ],
      [
        "o",
        "od"
      ],
      [
        "i",
        "ke"
      ],
      [
        "r",
        "u"
      ],
      [
        "Ġcom",
        "m"
      ],
      [
        "Ġ",
        "L"
      ],
      [
        "ä¿",
        "¡"
      ],
      [
        "Ġ",
        "G"
      ],
      [
        "ç",
        "Ł"
      ],
      [
        "çĶ",
        "µ"
      ],
      [
        "Ġw",
        "as"
      ],
      [
        "lo",
        "w"
      ],
      [
        "er",
        "v"
      ],
      [
        "åĮ",
        "ħ"
      ],
      [
        "ĠĠĠĠ",
        "ĠĠĠĠ"
      ],
      [
        "Ġw",
        "he"
      ],
      [
        "d",
        "it"
      ],
      [
        "Ġwh",
        "ich"
      ],
      [
        "Ġcom",
        "p"
      ],
      [
        "é",
        "ª"
      ],
      [
        "o",
        "re"
      ],
      [
        "ç",
        "¾"
      ],
      [
        "Ġ",
        "="
      ],
      [
        "çī",
        "¹"
      ],
      [
        "if",
        "f"
      ],
      [
        "er",
        "t"
      ],
      [
        "æ",
        "ģ"
      ],
      [
        "r",
        "it"
      ],
      [
        "Ġre",
        "c"
      ],
      [
        "åĨ",
        "ħ"
      ],
      [
        "æĺ",
        "İ"
      ],
      [
        "or",
        "s"
      ],
      [
        "Ġp",
        "at"
      ],
      [
        "--",
        "--"
      ],
      [
        "æ",
        "Ł"
      ],
      [
        "Ġa",
        "pp"
      ],
      [
        "n",
        "s"
      ],
      [
        "åĬ",
        "¡"
      ],
      [
        "al",
        "y"
      ],
      [
        "a",
        "ce"
      ],
      [
        "æ´",
        "»"
      ],
      [
        "ä¾",
        "Ľ"
      ],
      [
        "a",
        "v"
      ],
      [
        "ä¸",
        "»"
      ],
      [
        "Ġp",
        "ers"
      ],
      [
        "ç",
        "ĥ"
      ],
      [
        "è¯",
        "¥"
      ],
      [
        "Ġm",
        "y"
      ],
      [
        "ç",
        "©"
      ],
      [
        "er",
        "i"
      ],
      [
        "è®",
        "©"
      ],
      [
        "æĬ",
        "Ģ"
      ],
      [
        "éķ",
        "¿"
      ],
      [
        "ac",
        "k"
      ],
      [
        "Ġ",
        "N"
      ],
      [
        "Ġd",
        "iff"
      ],
      [
        "Ġth",
        "is"
      ],
      [
        "å",
        "Ŀ"
      ],
      [
        "Ġens",
        "ure"
      ],
      [
        "å½",
        "ĵ"
      ],
      [
        "Ġo",
        "ut"
      ],
      [
        "Ġc",
        "l"
      ],
      [
        "Ġ",
        "k"
      ],
      [
        "é",
        "¦"
      ],
      [
        "ou",
        "nt"
      ],
      [
        "çİ",
        "¯"
      ],
      [
        "åĬ",
        "©"
      ],
      [
        "Ġtechn",
        "olo"
      ],
      [
        "Ġthe",
        "se"
      ],
      [
        "f",
        "ul"
      ],
      [
        "é",
        "ļ"
      ],
      [
        "æ",
        "·"
      ],
      [
        "ä¸Ģ",
        "äºĽ"
      ],
      [
        "Ġs",
        "oc"
      ],
      [
        "å¼",
        "Ģ"
      ],
      [
        "å¤",
        "©"
      ],
      [
        "Ġe",
        "v"
      ],
      [
        "Ġre",
        "du"
      ],
      [
        "Ġthe",
        "m"
      ],
      [
        "Ġ",
        "("
      ],
      [
        "é",
        "ĥ½"
      ],
      [
        "æĪ",
        "·"
      ],
      [
        "è",
        "·"
      ],
      [
        "åľ",
        "º"
      ],
      [
        "æ°",
        "Ķ"
      ],
      [
        "Ġ",
        "Y"
      ],
      [
        "è¯",
        "Ń"
      ],
      [
        "éĢļ",
        "è¿ĩ"
      ],
      [
        "å±",
        "ķ"
      ],
      [
        "Ġc",
        "o"
      ],
      [
        "å½",
        "±"
      ],
      [
        "ç",
        "¬"
      ],
      [
        "Ġan",
        "aly"
      ],
      [
        "æ¯",
        "Ķ"
      ],
      [
        "åħ",
        "¨"
      ],
      [
        "Ġimpro",
        "ve"
      ],
      [
        "ç»",
        "ĵ"
      ],
      [
        "å¹",
        "´"
      ],
      [
        "ç",
        "ķ"
      ],
      [
        "çĿ",
        "Ģ"
      ],
      [
        "Ġh",
        "um"
      ],
      [
        "Ġ",
        "qu"
      ],
      [
        "ç®",
        "Ĺ"
      ],
      [
        "Ġ",
        "O"
      ],
      [
        "é£",
        "Ł"
      ],
      [
        "il",
        "ity"
      ],
      [
        "Ġsystem",
        "s"
      ],
      [
        "åı",
        "ĺ"
      ],
      [
        "a",
        "il"
      ],
      [
        "ç",
        "¼"
      ],
      [
        "ç",
        "ł"
      ],
      [
        "è¿Ļ",
        "ä¸ª"
      ],
      [
        "æıĲ",
        "ä¾Ľ"
      ],
      [
        "as",
        "e"
      ],
      [
        "å",
        "ŀ"
      ],
      [
        "ment",
        "s"
      ],
      [
        "Ġp",
        "ot"
      ],
      [
        "Ġan",
        "y"
      ],
      [
        "ä½",
        "Ĩ"
      ],
      [
        "Ġcon",
        "s"
      ],
      [
        "ĠI",
        "t"
      ],
      [
        "æł",
        "¼"
      ],
      [
        "Ġa",
        "r"
      ],
      [
        "æľ",
        "¯"
      ],
      [
        "éĿ",
        "ŀ"
      ],
      [
        "Ġd",
        "o"
      ],
      [
        "Ġm",
        "ay"
      ],
      [
        "æĭ",
        "©"
      ],
      [
        "u",
        "e"
      ],
      [
        "éĢī",
        "æĭ©"
      ],
      [
        "r",
        "y"
      ],
      [
        "é",
        "ĥ"
      ],
      [
        "Ġl",
        "ike"
      ],
      [
        "on",
        "g"
      ],
      [
        "è",
        "ģ"
      ],
      [
        "`",
        "`"
      ],
      [
        "i",
        "le"
      ],
      [
        "æ±",
        "Ĥ"
      ],
      [
        "Ġne",
        "w"
      ],
      [
        "i",
        "ent"
      ],
      [
        "Ġimp",
        "act"
      ],
      [
        "è¿",
        "ĺ"
      ],
      [
        "æ³",
        "¨"
      ],
      [
        "ä¹",
        "Ī"
      ],
      [
        "çĽ",
        "®"
      ],
      [
        "âĢ",
        "ľ"
      ],
      [
        "âĢ",
        "Ŀ"
      ],
      [
        "e",
        "f"
      ],
      [
        "ä¾",
        "ĭ"
      ],
      [
        "Ġpot",
        "ential"
      ],
      [
        "o",
        "k"
      ],
      [
        "åı¯",
        "èĥ½"
      ],
      [
        "Ġtr",
        "ans"
      ],
      [
        "Ġa",
        "ct"
      ],
      [
        "ï¼",
        "ī"
      ],
      [
        "Ġspe",
        "c"
      ],
      [
        "æ",
        "¶"
      ],
      [
        "Ġw",
        "ill"
      ],
      [
        "äº",
        "¤"
      ],
      [
        "iz",
        "e"
      ],
      [
        "ç¾",
        "İ"
      ],
      [
        "å¸",
        "Ĥ"
      ],
      [
        "Ġst",
        "ud"
      ],
      [
        "p",
        "on"
      ],
      [
        "è",
        "º"
      ],
      [
        "ä¸į",
        "åĲĮ"
      ],
      [
        "on",
        "e"
      ],
      [
        "å¾",
        "Ī"
      ],
      [
        "åı",
        "Ĭ"
      ],
      [
        "å¦Ĥ",
        "æŀľ"
      ],
      [
        "çĲ",
        "ĥ"
      ],
      [
        "an",
        "ge"
      ],
      [
        "Ġne",
        "ed"
      ],
      [
        "å¤",
        "ĸ"
      ],
      [
        "et",
        "y"
      ],
      [
        "ak",
        "ing"
      ],
      [
        "è¯",
        "·"
      ],
      [
        "at",
        "er"
      ],
      [
        "Ġpers",
        "on"
      ],
      [
        "id",
        "ent"
      ],
      [
        "Ġs",
        "o"
      ],
      [
        "Ġm",
        "ake"
      ],
      [
        "å¹",
        "³"
      ],
      [
        "å¤",
        "Ł"
      ],
      [
        "èº",
        "«"
      ],
      [
        "ï¼",
        "Ī"
      ],
      [
        "Ġin",
        "form"
      ],
      [
        "æ",
        "¡"
      ],
      [
        "äº",
        "ĭ"
      ],
      [
        "åı",
        "Ĺ"
      ],
      [
        "as",
        "ed"
      ],
      [
        "il",
        "d"
      ],
      [
        "Ġof",
        "f"
      ],
      [
        "Ġthe",
        "re"
      ],
      [
        "c",
        "is"
      ],
      [
        "è",
        "¢"
      ],
      [
        "éĥ",
        "¨"
      ],
      [
        "æ¯",
        "ı"
      ],
      [
        "ra",
        "ct"
      ],
      [
        "as",
        "s"
      ],
      [
        "Ġlearn",
        "ing"
      ],
      [
        "å",
        "ĸ"
      ],
      [
        "å½",
        "¢"
      ],
      [
        "i",
        "re"
      ],
      [
        "ä»",
        "İ"
      ],
      [
        "bot",
        "s"
      ],
      [
        "è",
        "Ļ"
      ],
      [
        "å¸",
        "®"
      ],
      [
        "Ġd",
        "es"
      ],
      [
        "ĠI",
        "n"
      ],
      [
        "c",
        "ess"
      ],
      [
        "Ġp",
        "e"
      ],
      [
        "if",
        "y"
      ],
      [
        "Ġwh",
        "o"
      ],
      [
        "ä¹",
        "ł"
      ],
      [
        "æľ",
        "Ł"
      ],
      [
        "Ġexp",
        "eri"
      ],
      [
        "é",
        "Ĥ"
      ],
      [
        "Ġs",
        "c"
      ],
      [
        "e",
        "p"
      ],
      [
        "ä½",
        "ķ"
      ],
      [
        "Ġt",
        "ime"
      ],
      [
        "éĿŀ",
        "å¸¸"
      ],
      [
        "æĭ",
        "¬"
      ],
      [
        "å",
        "ķ"
      ],
      [
        "ä»¥",
        "ä¸ĭ"
      ],
      [
        "éģ",
        "ĵ"
      ],
      [
        "Ġcomm",
        "un"
      ],
      [
        "Ġc",
        "ould"
      ],
      [
        "a",
        "p"
      ],
      [
        "è",
        "Ĳ"
      ],
      [
        "è°",
        "ĥ"
      ],
      [
        "l",
        "ic"
      ],
      [
        "du",
        "ct"
      ],
      [
        "Ġit",
        "s"
      ],
      [
        "c",
        "y"
      ],
      [
        "è¯",
        "´"
      ],
      [
        "Ġm",
        "ed"
      ],
      [
        "Ġc",
        "ol"
      ],
      [
        "ul",
        "ar"
      ],
      [
        "éĩį",
        "è¦ģ"
      ],
      [
        "Ġs",
        "p"
      ],
      [
        "åĪ",
        "©"
      ],
      [
        "èµ",
        "·"
      ],
      [
        "Ġprov",
        "id"
      ],
      [
        "ic",
        "es"
      ],
      [
        "å",
        "Ļ"
      ],
      [
        "æĸ",
        "Ļ"
      ],
      [
        "Ġimp",
        "ort"
      ],
      [
        "ur",
        "al"
      ],
      [
        "åŃ",
        "Ĺ"
      ],
      [
        "Ġu",
        "nd"
      ],
      [
        "in",
        "t"
      ],
      [
        "Ġo",
        "ver"
      ],
      [
        "åı",
        "¸"
      ],
      [
        "æł",
        "¹"
      ],
      [
        "é",
        "¥"
      ],
      [
        "pl",
        "es"
      ],
      [
        "ä»ĸ",
        "ä»¬"
      ],
      [
        "g",
        "ra"
      ],
      [
        "ur",
        "ing"
      ],
      [
        "n",
        "ow"
      ],
      [
        "åį",
        "ķ"
      ],
      [
        "è¿Ļ",
        "äºĽ"
      ],
      [
        "åī",
        "į"
      ],
      [
        "å®",
        "ī"
      ],
      [
        "Ġp",
        "r"
      ],
      [
        "åĮħ",
        "æĭ¬"
      ],
      [
        "ç»",
        "Ļ"
      ],
      [
        "T",
        "he"
      ],
      [
        "ä½",
        "į"
      ],
      [
        "å",
        "§"
      ],
      [
        "ç´",
        "ł"
      ],
      [
        "åĳ",
        "ĺ"
      ],
      [
        "Ġ",
        "ident"
      ],
      [
        "åŀ",
        "ĭ"
      ],
      [
        "Ġad",
        "d"
      ],
      [
        "å¼",
        "º"
      ],
      [
        "æĺ¯",
        "ä¸Ģ"
      ],
      [
        "i",
        "p"
      ],
      [
        "g",
        "or"
      ],
      [
        "Ġsu",
        "pport"
      ],
      [
        "n",
        "e"
      ],
      [
        "Ġdiff",
        "ere"
      ],
      [
        "åħ",
        "ĥ"
      ],
      [
        "Ġas",
        "s"
      ],
      [
        "åĨ",
        "³"
      ],
      [
        "é",
        "Ľ"
      ],
      [
        "åĲ",
        "į"
      ],
      [
        "Ġg",
        "o"
      ],
      [
        "Ġtechnolo",
        "gy"
      ],
      [
        "æĢ",
        "»"
      ],
      [
        "è®",
        "®"
      ],
      [
        "Ġin",
        "ter"
      ],
      [
        "Ġin",
        "v"
      ],
      [
        "Ġo",
        "ur"
      ],
      [
        "æķ",
        "Ī"
      ],
      [
        "ust",
        "om"
      ],
      [
        "Ġre",
        "l"
      ],
      [
        "if",
        "e"
      ],
      [
        "åĻ",
        "¨"
      ],
      [
        "ing",
        "s"
      ],
      [
        "ä»",
        "·"
      ],
      [
        "Ġp",
        "art"
      ],
      [
        "è¢",
        "«"
      ],
      [
        "æī",
        "ĭ"
      ],
      [
        "ar",
        "y"
      ],
      [
        "Ġres",
        "pon"
      ],
      [
        "Ċ",
        "ĠĠĠ"
      ],
      [
        "å¥½",
        "çļĦ"
      ],
      [
        "at",
        "ive"
      ],
      [
        "å¸®",
        "åĬ©"
      ],
      [
        "ç»",
        "Ł"
      ],
      [
        "æĶ",
        "¾"
      ],
      [
        "ĠH",
        "ere"
      ],
      [
        "ç",
        "ģ"
      ],
      [
        "Ġb",
        "ut"
      ],
      [
        "æģ",
        "¯"
      ],
      [
        "æŃ",
        "£"
      ],
      [
        "ar",
        "k"
      ],
      [
        "åħ¬",
        "åı¸"
      ],
      [
        "or",
        "y"
      ],
      [
        "å¢",
        "ĥ"
      ],
      [
        "le",
        "ct"
      ],
      [
        "é",
        "Ł"
      ],
      [
        "æĥ",
        "³"
      ],
      [
        "é£",
        "İ"
      ],
      [
        "at",
        "ing"
      ],
      [
        "Ġa",
        "m"
      ],
      [
        "it",
        "s"
      ],
      [
        "æ",
        "»"
      ],
      [
        "gor",
        "ith"
      ],
      [
        "åĵ",
        "į"
      ],
      [
        "ure",
        "s"
      ],
      [
        "Ġeff",
        "ect"
      ],
      [
        "Ġsh",
        "ould"
      ],
      [
        "Ġp",
        "er"
      ],
      [
        "è",
        "±"
      ],
      [
        "ç",
        "²"
      ],
      [
        "ic",
        "t"
      ],
      [
        "Ġal",
        "gorith"
      ],
      [
        "u",
        "c"
      ],
      [
        "rou",
        "gh"
      ],
      [
        "ä»",
        "»"
      ],
      [
        "ä»",
        "¶"
      ],
      [
        "Ġbe",
        "t"
      ],
      [
        "i",
        "a"
      ],
      [
        "Ġanaly",
        "z"
      ],
      [
        "æł¹",
        "æį®"
      ],
      [
        "iz",
        "ed"
      ],
      [
        "æµ",
        "ģ"
      ],
      [
        "è§",
        "Ĥ"
      ],
      [
        "è",
        "£"
      ],
      [
        "æł",
        "ĩ"
      ],
      [
        "ir",
        "on"
      ],
      [
        "Ġc",
        "ustom"
      ],
      [
        "Ġre",
        "g"
      ],
      [
        "Ġperson",
        "al"
      ],
      [
        "èĥ½",
        "å¤Ł"
      ],
      [
        "ic",
        "s"
      ],
      [
        "iv",
        "id"
      ],
      [
        "ç",
        "Ī"
      ],
      [
        "èµ",
        "Ħ"
      ],
      [
        "æŃ",
        "¥"
      ],
      [
        "å®",
        "¹"
      ],
      [
        "åĪ",
        "Ľ"
      ],
      [
        "è",
        "Ī"
      ],
      [
        "ä¹",
        "Ĳ"
      ],
      [
        "å¯",
        "¼"
      ],
      [
        "g",
        "an"
      ],
      [
        "èĬ",
        "Ĥ"
      ],
      [
        "Ġal",
        "l"
      ],
      [
        "en",
        "s"
      ],
      [
        "am",
        "e"
      ],
      [
        "n",
        "ess"
      ],
      [
        "Ġu",
        "p"
      ],
      [
        "Ġ",
        "U"
      ],
      [
        "èĢ",
        "ĥ"
      ],
      [
        "el",
        "f"
      ],
      [
        "åĢ",
        "¼"
      ],
      [
        "å°",
        "ĳ"
      ],
      [
        "æľ",
        "į"
      ],
      [
        "ar",
        "i"
      ],
      [
        "th",
        "ical"
      ],
      [
        "v",
        "iron"
      ],
      [
        "è",
        "ĥ"
      ],
      [
        "or",
        "d"
      ],
      [
        "Ġs",
        "ign"
      ],
      [
        "éĩ",
        "Į"
      ],
      [
        "ou",
        "nd"
      ],
      [
        "o",
        "ple"
      ],
      [
        "åŁ",
        "º"
      ],
      [
        "Ġinform",
        "ation"
      ],
      [
        "Ġident",
        "ify"
      ],
      [
        "åĽ",
        "ŀ"
      ],
      [
        "Ġc",
        "re"
      ],
      [
        "éŁ",
        "³"
      ],
      [
        "ib",
        "le"
      ],
      [
        "u",
        "b"
      ],
      [
        "è¿",
        "Ĳ"
      ],
      [
        "Ġle",
        "ad"
      ],
      [
        "æ¸",
        "¸"
      ],
      [
        "æ¬",
        "¡"
      ],
      [
        "åĨ",
        "Ļ"
      ],
      [
        "éĤ",
        "£"
      ],
      [
        "g",
        "et"
      ],
      [
        "è",
        "į"
      ],
      [
        "Ġexam",
        "ple"
      ],
      [
        "ä¼",
        "ĺ"
      ],
      [
        "å½±",
        "åĵį"
      ],
      [
        "is",
        "h"
      ],
      [
        "x",
        "t"
      ],
      [
        "æ",
        "º"
      ],
      [
        "éª",
        "Į"
      ],
      [
        "o",
        "b"
      ],
      [
        "å®",
        "¢"
      ],
      [
        "å¤",
        "ĩ"
      ],
      [
        "åģ",
        "¥"
      ],
      [
        "è½",
        "¦"
      ],
      [
        "ç¤",
        "¾"
      ],
      [
        "ivid",
        "ual"
      ],
      [
        "ere",
        "d"
      ],
      [
        "l",
        "es"
      ],
      [
        "Ġen",
        "viron"
      ],
      [
        "Ġpe",
        "ople"
      ],
      [
        "æĺ",
        "Ł"
      ],
      [
        "ç",
        "ĸ"
      ],
      [
        "ç",
        "ĭ"
      ],
      [
        "Ġd",
        "et"
      ],
      [
        "æĹ",
        "ł"
      ],
      [
        "Ġ",
        "if"
      ],
      [
        "o",
        "se"
      ],
      [
        "it",
        "e"
      ],
      [
        "å¢",
        "ŀ"
      ],
      [
        "é",
        "Ĵ"
      ],
      [
        "åĲĮ",
        "æĹ¶"
      ],
      [
        "è¿",
        "°"
      ],
      [
        "æĸ¹",
        "å¼ı"
      ],
      [
        "åĽ",
        "½"
      ],
      [
        "é",
        "»"
      ],
      [
        "å¤",
        "Ħ"
      ],
      [
        "Ġexam",
        "ples"
      ],
      [
        "æ",
        "®"
      ],
      [
        "Ġint",
        "o"
      ],
      [
        "æĮ",
        "ĩ"
      ],
      [
        "Ġhum",
        "an"
      ],
      [
        "åĲ",
        "ĳ"
      ],
      [
        "ç¤",
        "º"
      ],
      [
        "æķ°",
        "æį®"
      ],
      [
        "Ġ",
        "3"
      ],
      [
        "Ġ",
        "J"
      ],
      [
        "è",
        "ı"
      ],
      [
        "çİ¯",
        "å¢ĥ"
      ],
      [
        "al",
        "s"
      ],
      [
        "ers",
        "t"
      ],
      [
        "Ġe",
        "thical"
      ],
      [
        "ç»",
        "Ħ"
      ],
      [
        "ä¼",
        "ł"
      ],
      [
        "Ġdiffere",
        "nt"
      ],
      [
        "Ġk",
        "now"
      ],
      [
        "åº",
        "ı"
      ],
      [
        "Ġind",
        "ividual"
      ],
      [
        "æıĲ",
        "é«ĺ"
      ],
      [
        "rou",
        "nd"
      ],
      [
        "å°",
        "±"
      ],
      [
        "åı",
        "ĸ"
      ],
      [
        "åŃ",
        "ĺ"
      ],
      [
        "ä¸",
        "¤"
      ],
      [
        "çŁ",
        "¥"
      ],
      [
        "our",
        "ces"
      ],
      [
        "c",
        "k"
      ],
      [
        "å",
        "£"
      ],
      [
        "in",
        "es"
      ],
      [
        "è¾",
        "¾"
      ],
      [
        "Ġman",
        "y"
      ],
      [
        "æķ",
        "´"
      ],
      [
        "æł",
        "·"
      ],
      [
        "dit",
        "ional"
      ],
      [
        "om",
        "m"
      ],
      [
        "çĶ",
        "±"
      ],
      [
        "éĢ",
        "ł"
      ],
      [
        "å®ĥ",
        "ä»¬"
      ],
      [
        "u",
        "es"
      ],
      [
        "Ġm",
        "ent"
      ],
      [
        "Ġimport",
        "ant"
      ],
      [
        "Ġo",
        "pt"
      ],
      [
        "Ġlo",
        "c"
      ],
      [
        "p",
        "h"
      ],
      [
        "Ġpro",
        "cess"
      ],
      [
        "Ġalgorith",
        "ms"
      ],
      [
        "è®¾",
        "è®¡"
      ],
      [
        "Ġsoc",
        "ial"
      ],
      [
        "ver",
        "y"
      ],
      [
        "åĪ",
        "Ļ"
      ],
      [
        "ä¾ĭ",
        "å¦Ĥ"
      ],
      [
        "è®",
        "¤"
      ],
      [
        "Ġa",
        "ut"
      ],
      [
        "Ġs",
        "erv"
      ],
      [
        "g",
        "g"
      ],
      [
        "äº§",
        "åĵģ"
      ],
      [
        "è§",
        "Ħ"
      ],
      [
        "çľ",
        "ĭ"
      ],
      [
        "ve",
        "l"
      ],
      [
        "æĸ¹",
        "æ³ķ"
      ],
      [
        "Ġb",
        "en"
      ],
      [
        "åĽł",
        "æŃ¤"
      ],
      [
        "c",
        "are"
      ],
      [
        "p",
        "er"
      ],
      [
        "åĬ",
        "Ł"
      ],
      [
        "å»º",
        "è®®"
      ],
      [
        "Ġp",
        "os"
      ],
      [
        "æ",
        "¤"
      ],
      [
        "w",
        "e"
      ],
      [
        "åĮ",
        "º"
      ],
      [
        "i",
        "qu"
      ],
      [
        "Ġre",
        "al"
      ],
      [
        "æĹ",
        "¥"
      ],
      [
        "Ġredu",
        "ce"
      ],
      [
        "a",
        "f"
      ],
      [
        "ang",
        "u"
      ],
      [
        "Ġs",
        "k"
      ],
      [
        "Ġ",
        "ed"
      ],
      [
        "erst",
        "and"
      ],
      [
        "åĨ",
        "µ"
      ],
      [
        "m",
        "ot"
      ],
      [
        "åħ",
        "Ī"
      ],
      [
        "ç",
        "¥"
      ],
      [
        "åºĶ",
        "è¯¥"
      ],
      [
        "Ġth",
        "rough"
      ],
      [
        "Ġcon",
        "c"
      ],
      [
        "åıĳ",
        "å±ķ"
      ],
      [
        "è¯",
        "ķ"
      ],
      [
        "æ¡",
        "Ī"
      ],
      [
        "Ġenviron",
        "ment"
      ],
      [
        "åı",
        "£"
      ],
      [
        "Ġad",
        "v"
      ],
      [
        "åĪ",
        "«"
      ],
      [
        "Ġben",
        "ef"
      ],
      [
        "æ¸",
        "ħ"
      ],
      [
        "åĳ",
        "³"
      ],
      [
        "åħ",
        "ī"
      ],
      [
        "Ġdevelop",
        "ment"
      ],
      [
        "en",
        "g"
      ],
      [
        "å¦Ĥ",
        "ä½ķ"
      ],
      [
        "ç®",
        "¡"
      ],
      [
        "iv",
        "ers"
      ],
      [
        "åĲ",
        "Ħ"
      ],
      [
        "Ġr",
        "is"
      ],
      [
        "ro",
        "w"
      ],
      [
        "er",
        "gy"
      ],
      [
        "è®¡",
        "ç®Ĺ"
      ],
      [
        "ä¿¡",
        "æģ¯"
      ],
      [
        "Ġpro",
        "duct"
      ],
      [
        "è¾",
        "ĥ"
      ],
      [
        "è®",
        "º"
      ],
      [
        "èĩªå·±",
        "çļĦ"
      ],
      [
        "æĬ",
        "¤"
      ],
      [
        "åı",
        "į"
      ],
      [
        "åħ¶",
        "ä»ĸ"
      ],
      [
        "åĪ",
        "Ĺ"
      ],
      [
        "ç»",
        "Ĩ"
      ],
      [
        "ç©",
        "º"
      ],
      [
        "Ġg",
        "reat"
      ],
      [
        "e",
        "ar"
      ],
      [
        "æº",
        "Ĳ"
      ],
      [
        "j",
        "ect"
      ],
      [
        "çĶŁ",
        "æ´»"
      ],
      [
        "ä¸Ń",
        "çļĦ"
      ],
      [
        "Ġund",
        "erstand"
      ],
      [
        "è",
        "ĭ"
      ],
      [
        "h",
        "at"
      ],
      [
        "Ġpro",
        "gra"
      ],
      [
        "ç",
        "Ĭ"
      ],
      [
        "éĩ",
        "ĳ"
      ],
      [
        "Ġinclud",
        "ing"
      ],
      [
        "Ġacc",
        "ess"
      ],
      [
        "ĠĠĠĠ",
        "ĠĠĠ"
      ],
      [
        "è¯",
        "Ĩ"
      ],
      [
        "ç",
        "¦"
      ],
      [
        "o",
        "g"
      ],
      [
        "è£",
        "ħ"
      ],
      [
        "Ġar",
        "t"
      ],
      [
        "Ġw",
        "rit"
      ],
      [
        "Ġinc",
        "re"
      ],
      [
        "Ġp",
        "h"
      ],
      [
        "æĸ¹",
        "éĿ¢"
      ],
      [
        "Ġp",
        "ract"
      ],
      [
        "Ġus",
        "ing"
      ],
      [
        "é¡",
        "¹"
      ],
      [
        "æİ",
        "¥"
      ],
      [
        "Ġway",
        "s"
      ],
      [
        "Ġl",
        "angu"
      ],
      [
        "æĶ",
        "¯"
      ],
      [
        "Ġch",
        "all"
      ],
      [
        "åİ",
        "»"
      ],
      [
        "__",
        "__"
      ],
      [
        "im",
        "ate"
      ],
      [
        "æĸ",
        "Ń"
      ],
      [
        "è",
        "¨"
      ],
      [
        "Ġw",
        "ell"
      ],
      [
        "l",
        "l"
      ],
      [
        "Ġp",
        "ol"
      ],
      [
        "æĢ",
        "ģ"
      ],
      [
        "Ġ",
        "ra"
      ],
      [
        "C",
        "an"
      ],
      [
        "åİ",
        "Ł"
      ],
      [
        "b",
        "er"
      ],
      [
        "è¨",
        "Ģ"
      ],
      [
        "ç«",
        "ĭ"
      ],
      [
        "Ġg",
        "en"
      ],
      [
        "éħ",
        "į"
      ],
      [
        "æ·",
        "±"
      ],
      [
        "t",
        "e"
      ],
      [
        "ä¸",
        "ī"
      ],
      [
        "ç§",
        "ĳ"
      ],
      [
        "ĠF",
        "or"
      ],
      [
        "çº",
        "¿"
      ],
      [
        "ç",
        "ħ"
      ],
      [
        "æ",
        "¼"
      ],
      [
        "åķ",
        "Ĩ"
      ],
      [
        "æĿ",
        "Ĳ"
      ],
      [
        "Ġsign",
        "ific"
      ],
      [
        "Ġg",
        "u"
      ],
      [
        "Ġde",
        "cis"
      ],
      [
        "Ġtra",
        "in"
      ],
      [
        "Ġa",
        "g"
      ],
      [
        "Ġc",
        "reat"
      ],
      [
        "å®",
        "Į"
      ],
      [
        "æĹ¶",
        "éĹ´"
      ],
      [
        "Ġon",
        "e"
      ],
      [
        "è",
        "Ħ"
      ],
      [
        "Ġn",
        "at"
      ],
      [
        "åŃ¦",
        "ä¹ł"
      ],
      [
        "çļĦæ",
        "ķ"
      ],
      [
        "c",
        "ed"
      ],
      [
        "Ġwhe",
        "n"
      ],
      [
        "Ġb",
        "i"
      ],
      [
        "è",
        "İ"
      ],
      [
        "æĽ´",
        "åĬł"
      ],
      [
        "iv",
        "es"
      ],
      [
        "p",
        "ort"
      ],
      [
        "å·¥",
        "ä½ľ"
      ],
      [
        "v",
        "ing"
      ],
      [
        "Ġbe",
        "en"
      ],
      [
        "æĻ",
        "º"
      ],
      [
        "Ġl",
        "ife"
      ],
      [
        "å¼",
        "ķ"
      ],
      [
        "ar",
        "m"
      ],
      [
        "çİ",
        "ĩ"
      ],
      [
        "çĶ¨",
        "æĪ·"
      ],
      [
        "ä¹",
        "ī"
      ],
      [
        "ä»",
        "½"
      ],
      [
        "è¯",
        "Ŀ"
      ],
      [
        "in",
        "ess"
      ],
      [
        "c",
        "om"
      ],
      [
        "åº",
        "·"
      ],
      [
        "åĩ",
        "ı"
      ],
      [
        "ä»",
        "Ģ"
      ],
      [
        "è¾",
        "ĵ"
      ],
      [
        "Ġv",
        "ari"
      ],
      [
        "c",
        "on"
      ],
      [
        "Ġmo",
        "d"
      ],
      [
        "ä»Ģ",
        "ä¹Ī"
      ],
      [
        "Ġen",
        "ergy"
      ],
      [
        "æĬĢ",
        "æľ¯"
      ],
      [
        "ert",
        "ain"
      ],
      [
        "m",
        "m"
      ],
      [
        "ver",
        "all"
      ],
      [
        "åĪ",
        "Ĵ"
      ],
      [
        "Ġro",
        "bots"
      ],
      [
        "Ġor",
        "gan"
      ],
      [
        "æİ",
        "¨"
      ],
      [
        "ant",
        "s"
      ],
      [
        "åĩ",
        "Ĩ"
      ],
      [
        "d",
        "s"
      ],
      [
        "æŀ",
        "ģ"
      ],
      [
        "ç",
        "Ļ"
      ],
      [
        "Ġre",
        "qu"
      ],
      [
        "Ġ",
        "ess"
      ],
      [
        "ç®",
        "Ģ"
      ],
      [
        "ust",
        "ain"
      ],
      [
        "æ",
        "¨"
      ],
      [
        "Ġst",
        "r"
      ],
      [
        "c",
        "ing"
      ],
      [
        "ab",
        "ility"
      ],
      [
        "re",
        "e"
      ],
      [
        "Ġed",
        "uc"
      ],
      [
        "åİ",
        "Ĩ"
      ],
      [
        "Ġcre",
        "ate"
      ],
      [
        "åģ¥",
        "åº·"
      ],
      [
        "Ġdes",
        "ign"
      ],
      [
        "i",
        "ps"
      ],
      [
        "åģ",
        "ļ"
      ],
      [
        "èĬ",
        "±"
      ],
      [
        "in",
        "k"
      ],
      [
        "èı",
        "ľ"
      ],
      [
        "æī",
        "¾"
      ],
      [
        "æ®",
        "µ"
      ],
      [
        "æµ",
        "ĭ"
      ],
      [
        "Ġ",
        "V"
      ],
      [
        "ĠB",
        "y"
      ],
      [
        "å",
        "Ķ"
      ],
      [
        "é¦",
        "ĸ"
      ],
      [
        "è¯",
        "į"
      ],
      [
        "Ġwhe",
        "re"
      ],
      [
        "Ġdis",
        "c"
      ],
      [
        "äºĨ",
        "è§£"
      ],
      [
        "r",
        "ic"
      ],
      [
        "ä¸",
        "Ķ"
      ],
      [
        "è¶",
        "³"
      ],
      [
        "æĺ¯",
        "ä¸Ģä¸ª"
      ],
      [
        "ar",
        "ch"
      ],
      [
        "ç§",
        "¯"
      ],
      [
        "å¸",
        "¦"
      ],
      [
        "Ġwh",
        "ile"
      ],
      [
        "Ġsignific",
        "ant"
      ],
      [
        "çł",
        "ģ"
      ],
      [
        "æĪ",
        "¿"
      ],
      [
        "Ġbe",
        "ing"
      ],
      [
        "Ġlangu",
        "age"
      ],
      [
        "it",
        "ive"
      ],
      [
        "2",
        "0"
      ],
      [
        "Ġanalyz",
        "e"
      ],
      [
        "æĻ",
        "¯"
      ],
      [
        "è",
        "Į"
      ],
      [
        "ri",
        "b"
      ],
      [
        "æ¨",
        "¡"
      ],
      [
        "ĠS",
        "t"
      ],
      [
        "è´",
        "¹"
      ],
      [
        "'",
        "t"
      ],
      [
        "Ġhealth",
        "care"
      ],
      [
        "Ġexperi",
        "ence"
      ],
      [
        "Ġ",
        "5"
      ],
      [
        "ä¸ª",
        "äºº"
      ],
      [
        "ay",
        "s"
      ],
      [
        "è±",
        "¡"
      ],
      [
        "p",
        "lo"
      ],
      [
        "Ġw",
        "ould"
      ],
      [
        "èĻ",
        "ĳ"
      ],
      [
        "æĶ",
        "¶"
      ],
      [
        "é¢",
        "Ħ"
      ],
      [
        "é¢",
        "Ĩ"
      ],
      [
        "ä¿Ŀ",
        "æĮģ"
      ],
      [
        "en",
        "ces"
      ],
      [
        "åı",
        "ª"
      ],
      [
        "èĩ",
        "´"
      ],
      [
        "æĪ",
        "ı"
      ],
      [
        "Ġment",
        "al"
      ],
      [
        "Ġfe",
        "w"
      ],
      [
        "at",
        "es"
      ],
      [
        "è¿ĩ",
        "ç¨ĭ"
      ],
      [
        "å®ī",
        "åħ¨"
      ],
      [
        "Ġs",
        "ustain"
      ],
      [
        "Ġw",
        "ere"
      ],
      [
        "å¤",
        "ª"
      ],
      [
        "ç",
        "Į"
      ],
      [
        "Ġspec",
        "ific"
      ],
      [
        "Ġwor",
        "ld"
      ],
      [
        "çŃ",
        "Ķ"
      ],
      [
        "``",
        "`"
      ],
      [
        "Ġt",
        "ake"
      ],
      [
        "åħ",
        "»"
      ],
      [
        "éĢ",
        "Ł"
      ],
      [
        "e",
        "ver"
      ],
      [
        "S",
        "S"
      ],
      [
        "éĶ",
        "Ģ"
      ],
      [
        "Ġb",
        "o"
      ],
      [
        "he",
        "s"
      ],
      [
        "Ġm",
        "us"
      ],
      [
        "æľį",
        "åĬ¡"
      ],
      [
        "è§",
        "Ĵ"
      ],
      [
        "t",
        "en"
      ],
      [
        "æŀ",
        "Ĳ"
      ],
      [
        "p",
        "ow"
      ],
      [
        "d",
        "ict"
      ],
      [
        "v",
        "ent"
      ],
      [
        "1",
        "0"
      ],
      [
        "çļĦæ",
        "Ĺ"
      ],
      [
        "ĸ",
        "çķ"
      ],
      [
        "Ġpro",
        "t"
      ],
      [
        "ç½",
        "®"
      ],
      [
        "Ġh",
        "igh"
      ],
      [
        "Ġb",
        "us"
      ],
      [
        "Ġind",
        "ust"
      ],
      [
        "åĲ",
        "¦"
      ],
      [
        "c",
        "ial"
      ],
      [
        "äºº",
        "ä»¬"
      ],
      [
        "ĠA",
        "s"
      ],
      [
        "åĳ",
        "Ĭ"
      ],
      [
        "ad",
        "e"
      ],
      [
        "æĶ",
        "¹"
      ],
      [
        "ç",
        "Ĺ"
      ],
      [
        "Ġh",
        "ad"
      ],
      [
        "Ġhe",
        "r"
      ],
      [
        "Ġj",
        "ust"
      ],
      [
        "ï¼",
        "Ľ"
      ],
      [
        "è´",
        "Ń"
      ],
      [
        "ç¬",
        "¬"
      ],
      [
        "é",
        "ĵ"
      ],
      [
        "Ġw",
        "ater"
      ],
      [
        "Ġf",
        "ood"
      ],
      [
        "éĺ",
        "Ł"
      ],
      [
        "a",
        "us"
      ],
      [
        "Ġchall",
        "eng"
      ],
      [
        "åħ",
        "į"
      ],
      [
        "æĸĩ",
        "åĮĸ"
      ],
      [
        "Ġmo",
        "st"
      ],
      [
        "é",
        "¸"
      ],
      [
        "ç½",
        "ĳ"
      ],
      [
        "çĽ",
        "´"
      ],
      [
        "Ġs",
        "m"
      ],
      [
        "Ġact",
        "iv"
      ],
      [
        "plo",
        "y"
      ],
      [
        "O",
        "verall"
      ],
      [
        "å¿",
        "«"
      ],
      [
        "ru",
        "ct"
      ],
      [
        "Ġindividual",
        "s"
      ],
      [
        "å§",
        "ĭ"
      ],
      [
        "g",
        "ies"
      ],
      [
        "æŁ",
        "¥"
      ],
      [
        "çĪ",
        "±"
      ],
      [
        "i",
        "ety"
      ],
      [
        "I",
        "n"
      ],
      [
        "åĪĨ",
        "æŀĲ"
      ],
      [
        "è§",
        "Ĩ"
      ],
      [
        "æ¸",
        "©"
      ],
      [
        "ç»",
        "´"
      ],
      [
        "ol",
        "ut"
      ],
      [
        "åŁ",
        "Ł"
      ],
      [
        "omm",
        "end"
      ],
      [
        "Ġcom",
        "ple"
      ],
      [
        "æķ",
        "Ļ"
      ],
      [
        "Ġb",
        "u"
      ],
      [
        "Ġeduc",
        "ation"
      ],
      [
        "at",
        "her"
      ],
      [
        "Ġ",
        "4"
      ],
      [
        "t",
        "ing"
      ],
      [
        "Ġf",
        "ind"
      ],
      [
        "æ²",
        "¡"
      ],
      [
        "Ġh",
        "is"
      ],
      [
        "ä¹ĭ",
        "éĹ´"
      ],
      [
        "Ġeffect",
        "ive"
      ],
      [
        "Ġat",
        "t"
      ],
      [
        "Ġre",
        "se"
      ],
      [
        "èĥ½",
        "åĬĽ"
      ],
      [
        "åŁ",
        "İ"
      ],
      [
        "Ġal",
        "low"
      ],
      [
        "Ġa",
        "v"
      ],
      [
        "Ġpro",
        "mot"
      ],
      [
        "æĻº",
        "èĥ½"
      ],
      [
        "æ»",
        "¡"
      ],
      [
        "åħ",
        "±"
      ],
      [
        "ie",
        "w"
      ],
      [
        "c",
        "ome"
      ],
      [
        "ç³»",
        "ç»Ł"
      ],
      [
        "Ġrespon",
        "s"
      ],
      [
        "äº",
        "Ĵ"
      ],
      [
        "Ġc",
        "ult"
      ],
      [
        "pow",
        "ered"
      ],
      [
        "Ġrec",
        "ommend"
      ],
      [
        "èĲ",
        "¥"
      ],
      [
        "O",
        "SS"
      ],
      [
        "Ġch",
        "ange"
      ],
      [
        "è¯",
        "ģ"
      ],
      [
        "v",
        "ed"
      ],
      [
        "æİ",
        "Ĵ"
      ],
      [
        "è§£",
        "åĨ³"
      ],
      [
        "ic",
        "i"
      ],
      [
        "ĠH",
        "ow"
      ],
      [
        "Ġfe",
        "el"
      ],
      [
        "æľ",
        "Ī"
      ],
      [
        "Ġwh",
        "at"
      ],
      [
        "ä»¥",
        "åıĬ"
      ],
      [
        "Ġse",
        "e"
      ],
      [
        "åŃ",
        "©"
      ],
      [
        "b",
        "s"
      ],
      [
        "Ġs",
        "ur"
      ],
      [
        "æ",
        "£"
      ],
      [
        "al",
        "ity"
      ],
      [
        "Ġv",
        "is"
      ],
      [
        "ç¡®",
        "ä¿Ŀ"
      ],
      [
        "p",
        "ect"
      ],
      [
        "å®ŀ",
        "çİ°"
      ],
      [
        "Ġc",
        "are"
      ],
      [
        "å¹",
        "¿"
      ],
      [
        "ill",
        "s"
      ],
      [
        "åº",
        "Ń"
      ],
      [
        "as",
        "es"
      ],
      [
        "å¤",
        "į"
      ],
      [
        "åºĶ",
        "çĶ¨"
      ],
      [
        "çļĦæ",
        "ĥ"
      ],
      [
        "ard",
        "s"
      ],
      [
        "Ġadd",
        "ress"
      ],
      [
        "Ġcomp",
        "an"
      ],
      [
        "Ġinv",
        "ol"
      ],
      [
        "Ġcustom",
        "er"
      ],
      [
        "åĽł",
        "ä¸º"
      ],
      [
        "Ġstud",
        "ents"
      ],
      [
        "Ġin",
        "s"
      ],
      [
        "æ³¨",
        "æĦı"
      ],
      [
        "æŀ",
        "Ħ"
      ],
      [
        "æ¬",
        "¢"
[...]
